<pad>	0
<unk>	0
<s>	0
</s>	0
▁n	-0
▁a	-1
▁m	-2
▁w	-3
▁na	-4
▁s	-5
▁no	-6
▁wɔ	-7
an	-8
de	-9
▁b	-10
yɛ	-11
aa	-12
▁ne	-13
▁ɔ	-14
ra	-15
▁k	-16
▁h	-17
yi	-18
▁sɛ	-19
ye	-20
ma	-21
fo	-22
on	-23
en	-24
▁ɛ	-25
▁wɔn	-26
▁mu	-27
▁me	-28
▁so	-29
▁as	-30
▁an	-31
▁wo	-32
re	-33
fi	-34
▁d	-35
ko	-36
ri	-37
rɛ	-38
▁mo	-39
am	-40
wu	-41
deɛ	-42
so	-43
ɔn	-44
▁nn	-45
▁ho	-46
▁yɛ	-47
se	-48
ka	-49
sa	-50
▁t	-51
foɔ	-52
yin	-53
▁awu	-54
ia	-55
rade	-56
▁awurade	-57
▁ad	-58
pa	-59
om	-60
▁nk	-61
eɛ	-62
▁我	-63
▁ab	-64
和華	-65
耶和華	-66
yerɛ	-67
▁o	-68
im	-69
yinaa	-70
su	-71
▁nt	-72
▁ah	-73
ro	-74
yan	-75
ene	-76
fa	-77
ya	-78
▁nyinaa	-79
ie	-80
wa	-81
▁mm	-82
▁mma	-83
um	-84
firi	-85
▁ye	-86
pɔn	-87
▁ma	-88
▁ak	-89
▁爾	-90
▁ba	-91
bɛ	-92
is	-93
▁e	-94
▁bɛ	-95
kopɔn	-96
yankopɔn	-97
sɛ	-98
▁bi	-99
▁de	-100
▁yi	-101
di	-102
te	-103
▁on	-104
ane	-105
▁以	-106
in	-107
▁asa	-108
▁ka	-109
un	-110
▁kɔ	-111
el	-112
we	-113
上帝	-114
to	-115
▁se	-116
▁deɛ	-117
▁g	-118
wɛ	-119
▁ɛn	-120
▁kyerɛ	-121
▁p	-122
▁yɛn	-123
ua	-124
▁af	-125
kɔ	-126
▁nso	-127
▁da	-128
▁be	-129
isra	-130
▁y	-131
▁hɔ	-132
da	-133
▁at	-134
be	-135
ipa	-136
▁ag	-137
▁am	-138
▁fi	-139
ba	-140
▁ɔh	-141
iara	-142
▁asase	-143
si	-144
▁其	-145
▁anim	-146
ɛm	-147
▁onyankopɔn	-148
ron	-149
▁kyerɛɛ	-150
▁baa	-151
wan	-152
wɔ	-153
▁isra	-154
▁israel	-155
▁ani	-156
▁wɔa	-157
▁nan	-158
▁ɔn	-159
色列	-160
▁asɛm	-161
em	-162
wi	-163
unu	-164
yɛn	-165
oa	-166
▁f	-167
▁ara	-168
ɔne	-169
▁ase	-170
bɔ	-171
wo	-172
▁mp	-173
▁saa	-174
ɛn	-175
▁mon	-176
uro	-177
ti	-178
ru	-179
mm	-180
▁耶和華	-181
▁nyankopɔn	-182
ena	-183
▁si	-184
▁nti	-185
bu	-186
oɔ	-187
▁彼	-188
▁akyi	-189
yɛɛ	-190
▁ano	-191
▁nkyɛn	-192
ni	-193
ɔre	-194
▁nsa	-195
uo	-196
▁ns	-197
▁ob	-198
ren	-199
▁fa	-200
▁re	-201
▁wɔde	-202
ta	-203
▁不	-204
▁nnipa	-205
▁nanso	-206
kyerɛ	-207
▁yesu	-208
▁而	-209
▁firi	-210
umi	-211
▁蓋	-212
ea	-213
▁ɔde	-214
以色列	-215
▁則	-216
▁soɔ	-217
▁sa	-218
▁ɔm	-219
▁adu	-220
hu	-221
rɔ	-222
▁maa	-223
▁ko	-224
sɛm	-225
▁ama	-226
gye	-227
▁wa	-228
▁ako	-229
▁bɔne	-230
▁mɛ	-231
▁hwɛ	-232
yia	-233
▁及	-234
▁anaa	-235
ho	-236
▁agya	-237
rima	-238
▁biara	-239
▁te	-240
▁ɔhene	-241
hwɛ	-242
▁ap	-243
▁必	-244
▁adi	-245
▁乃	-246
▁pa	-247
▁為	-248
hyɛ	-249
▁ɛnn	-250
▁yu	-251
hunu	-252
▁di	-253
▁惟	-254
▁如	-255
▁sɛdeɛ	-256
耶穌	-257
▁亞	-258
▁aba	-259
yam	-260
▁fie	-261
▁afe	-262
tɔ	-263
gya	-264
▁ɛfiri	-265
▁與	-266
▁yuda	-267
▁nea	-268
tu	-269
▁使	-270
▁nko	-271
▁yo	-272
▁ɔbɛ	-273
kye	-274
▁efi	-275
dan	-276
▁ɛyɛ	-277
ant	-278
▁wɔbɛ	-279
baa	-280
mma	-281
▁abu	-282
sua	-283
bo	-284
▁在	-285
bea	-286
▁bo	-287
yina	-288
▁mmi	-289
seɛ	-290
▁en	-291
▁bɔ	-292
▁有	-293
▁ha	-294
▁nie	-295
fra	-296
som	-297
▁mede	-298
kron	-299
▁daa	-300
▁aho	-301
suo	-302
▁nni	-303
▁baako	-304
▁din	-305
pɛ	-306
▁即	-307
mu	-308
wid	-309
▁dawid	-310
▁wu	-311
▁onipa	-312
▁nka	-313
之曰	-314
▁ɔman	-315
wie	-316
▁kɔɔ	-317
▁ayɛ	-318
▁man	-319
▁aman	-320
▁自	-321
▁nkwa	-322
▁mmara	-323
▁ya	-324
於爾	-325
▁nkɔ	-326
ronkron	-327
▁ɔyɛ	-328
sal	-329
▁kwan	-330
▁ɔk	-331
pɔ	-332
大衛	-333
▁obiara	-334
▁nsɛm	-335
twe	-336
raa	-337
ɔdeɛ	-338
▁kuro	-339
猶大	-340
uu	-341
▁woa	-342
ono	-343
bi	-344
ɔfoɔ	-345
▁曰	-346
▁遂	-347
tumi	-348
▁ɛbɛ	-349
dwo	-350
▁ɔs	-351
▁afɔdeɛ	-352
▁亦	-353
▁勿	-354
▁afei	-355
▁ɛnna	-356
▁akɔ	-357
mfa	-358
▁nh	-359
▁bio	-360
祭司	-361
▁gye	-362
kum	-363
onh	-364
▁ɔka	-365
▁enti	-366
▁mose	-367
▁因	-368
uan	-369
uru	-370
▁fam	-371
▁to	-372
▁asafo	-373
▁kronkron	-374
ini	-375
foro	-376
aman	-377
▁yeru	-378
po	-379
▁此	-380
▁bere	-381
▁當	-382
▁ɛwɔ	-383
▁dɔ	-384
hene	-385
ee	-386
▁firii	-387
salem	-388
▁yerusalem	-389
▁men	-390
▁adeɛ	-391
▁凡	-392
▁ɔba	-393
▁ti	-394
▁以色列	-395
▁sɛn	-396
耶路	-397
▁nna	-398
▁nne	-399
enu	-400
wuma	-401
lo	-402
▁ɛnyɛ	-403
sie	-404
▁efisɛ	-405
撒冷	-406
耶路撒冷	-407
ree	-408
▁ɔno	-409
▁又	-410
▁mpa	-411
摩西	-412
oma	-413
▁mi	-414
▁ade	-415
dɔ	-416
ria	-417
ten	-418
▁den	-419
israim	-420
▁misraim	-421
rɛɛ	-422
▁至	-423
ɛseɛ	-424
▁kaa	-425
amfo	-426
▁obi	-427
上帝耶和華	-428
▁mf	-429
le	-430
▁afiri	-431
▁pɛ	-432
▁hene	-433
▁無	-434
▁sɛnea	-435
於其	-436
▁mere	-437
於我	-438
▁耶穌	-439
tena	-440
▁故	-441
soɔ	-442
ware	-443
▁我必	-444
wene	-445
twa	-446
▁約	-447
yeɛ	-448
ban	-449
埃及	-450
▁aka	-451
▁ɛh	-452
maa	-453
wam	-454
▁若	-455
tɛ	-456
▁或	-457
ku	-458
▁ati	-459
dii	-460
ris	-461
▁won	-462
▁sika	-463
ii	-464
▁所	-465
▁abo	-466
▁yɛɛ	-467
ulo	-468
▁且	-469
▁mmienu	-470
▁nyɛ	-471
▁moa	-472
onhom	-473
▁今	-474
▁su	-475
▁akoma	-476
▁he	-477
▁teɛ	-478
▁fo	-479
▁aso	-480
gu	-481
▁nsam	-482
▁mmarima	-483
tie	-484
人之	-485
den	-486
▁anka	-487
▁afi	-488
▁afɔre	-489
▁el	-490
▁上帝	-491
▁mun	-492
tan	-493
▁ahyɛ	-494
▁ntam	-495
利亞	-496
▁wɔre	-497
▁honhom	-498
▁kris	-499
▁nku	-500
yaa	-501
▁ɛno	-502
▁akyiri	-503
▁kristo	-504
kuo	-505
▁israelfoɔ	-506
hwe	-507
▁bu	-508
uanom	-509
▁主	-510
▁ɔso	-511
▁是	-512
▁adwuma	-513
▁人	-514
▁ɛho	-515
siane	-516
▁俾	-517
erɛ	-518
uon	-519
▁pe	-520
▁ada	-521
▁nkuro	-522
▁mmɔ	-523
la	-524
▁berɛ	-525
ann	-526
▁wɔyɛ	-527
▁asom	-528
▁於	-529
▁ɔre	-530
▁du	-531
▁biri	-532
▁ate	-533
do	-534
▁ahen	-535
者之	-536
▁ɛtɔ	-537
▁tumi	-538
ram	-539
▁ɔbarima	-540
基督	-541
enee	-542
▁ɛsɛ	-543
▁mpan	-544
▁kan	-545
uonyam	-546
boa	-547
▁ana	-548
▁hyɛɛ	-549
▁非	-550
▁mpo	-551
▁akyerɛ	-552
▁wobɛ	-553
爾之	-554
isaa	-555
▁nam	-556
▁dii	-557
▁monn	-558
▁wɔwɔ	-559
▁mfiri	-560
ne	-561
▁mfa	-562
▁ren	-563
▁nsu	-564
▁nsuo	-565
▁afa	-566
biara	-567
▁wɔka	-568
kan	-569
umu	-570
▁amanaman	-571
▁ɔsoro	-572
kaa	-573
▁faa	-574
▁mmu	-575
上帝之	-576
其所	-577
▁nta	-578
▁kasa	-579
bɔɔ	-580
frɛ	-581
於耶和華	-582
yira	-583
son	-584
▁ɔbaa	-585
ha	-586
▁nua	-587
wetɛ	-588
tia	-589
▁nnan	-590
▁mmoa	-591
先知	-592
▁hu	-593
▁abɔ	-594
die	-595
▁yei	-596
sɛe	-597
我儕	-598
▁見	-599
sane	-600
inom	-601
▁ato	-602
▁nnom	-603
▁ntoma	-604
▁le	-605
▁ogya	-606
▁aduon	-607
▁ɛbɛyɛ	-608
▁aduane	-609
▁ni	-610
▁kɔsi	-611
▁agyan	-612
dua	-613
▁kae	-614
▁nok	-615
teɛ	-616
兄弟	-617
▁yere	-618
▁mme	-619
▁ɔwɔ	-620
▁bepɔ	-621
tee	-622
▁王	-623
gyina	-624
▁願	-625
▁爾其	-626
▁bɛyɛ	-627
▁abusua	-628
kyia	-629
go	-630
yansa	-631
▁atifi	-632
▁既	-633
nya	-634
▁wura	-635
▁將	-636
uafo	-637
▁ɔne	-638
▁nkoa	-639
▁爾之	-640
▁ahem	-641
▁woɔ	-642
▁saulo	-643
waa	-644
▁大衛	-645
▁mogya	-646
▁mmaa	-647
▁kɛseɛ	-648
ran	-649
rɔn	-650
▁hyɛ	-651
▁nkyerɛ	-652
▁momm	-653
isa	-654
sia	-655
▁beb	-656
▁然	-657
kyi	-658
▁seɛ	-659
▁wode	-660
▁nuanom	-661
taa	-662
wom	-663
▁yako	-664
hyia	-665
謂之曰	-666
▁hwe	-667
ase	-668
kɔɔ	-669
yame	-670
▁soro	-671
▁tena	-672
為我	-673
▁aseɛ	-674
▁眾	-675
▁kra	-676
▁mmom	-677
雅各	-678
duru	-679
▁我儕	-680
▁asi	-681
▁ten	-682
▁adɛn	-683
爾所	-684
anan	-685
▁nokware	-686
▁nkurɔ	-687
anu	-688
▁eyi	-689
之於	-690
▁do	-691
bere	-692
▁adan	-693
▁皆	-694
掃羅	-695
▁abuf	-696
doɔ	-697
▁akoa	-698
▁bebree	-699
▁致	-700
faa	-701
ue	-702
之人	-703
tene	-704
bukyia	-705
▁gi	-706
rant	-707
▁pii	-708
kyɛ	-709
dane	-710
▁一	-711
hye	-712
▁dwetɛ	-713
▁afɔrebukyia	-714
▁gyi	-715
▁odi	-716
▁nnwan	-717
▁yeinom	-718
▁ɔsɔfoɔ	-719
言之	-720
▁gyidi	-721
san	-722
▁ɔb	-723
▁owu	-724
▁ɔte	-725
▁yakob	-726
▁asomdwo	-727
▁biribiara	-728
▁耶	-729
mmu	-730
▁hwan	-731
▁wɔte	-732
▁agu	-733
▁asuafo	-734
iɛ	-735
▁ke	-736
▁sal	-737
▁agyanom	-738
bel	-739
tire	-740
我之	-741
sɔre	-742
oɔden	-743
▁sɔre	-744
me	-745
▁mfi	-746
▁nnɛ	-747
▁gu	-748
▁basa	-749
▁hunu	-750
利未	-751
我所	-752
yii	-753
ɛse	-754
wia	-755
▁ɛda	-756
wen	-757
▁apam	-758
▁可	-759
ɔfo	-760
▁gya	-761
▁anan	-762
▁adwene	-763
sɔ	-764
rah	-765
too	-766
▁dan	-767
▁何	-768
umm	-769
neɛ	-770
▁ben	-771
▁aa	-772
unkum	-773
▁bɔɔ	-774
▁fil	-775
▁atɛn	-776
▁俱	-777
wane	-778
▁twe	-779
yifoɔ	-780
▁aaron	-781
▁斯	-782
hwehwɛ	-783
▁lewi	-784
▁我將	-785
▁ntomadan	-786
▁asu	-787
耶和華之	-788
oni	-789
▁ɔkaa	-790
▁ku	-791
▁ngo	-792
之子	-793
nim	-794
ɛnsa	-795
▁asɔfoɔ	-796
pe	-797
▁mpem	-798
▁nsra	-799
▁abɛ	-800
之上帝	-801
▁wia	-802
▁ɔha	-803
▁bɛba	-804
▁mpae	-805
omo	-806
▁mfra	-807
▁ga	-808
▁kyɛ	-809
▁tee	-810
na	-811
nye	-812
▁afo	-813
之者	-814
▁momfa	-815
▁hyia	-816
▁nson	-817
▁anadwo	-818
hia	-819
suro	-820
門徒	-821
tifoɔ	-822
▁sene	-823
▁ahyia	-824
▁wiase	-825
▁摩西	-826
▁mfeɛ	-827
▁mobɛ	-828
▁awo	-829
▁sii	-830
▁循	-831
▁akwan	-832
▁由	-833
nie	-834
▁yɛa	-835
▁ansa	-836
▁bɛma	-837
▁mmra	-838
▁wɔmfa	-839
▁asɔre	-840
▁mmiɛnsa	-841
▁耶和華諭	-842
以色列人	-843
▁ahemfo	-844
▁mene	-845
支派	-846
ano	-847
kia	-848
mfo	-849
daa	-850
kyere	-851
▁mmusua	-852
▁昔	-853
▁emu	-854
▁行	-855
▁請	-856
之地	-857
dom	-858
tua	-859
▁猶大	-860
sɛn	-861
▁nyansa	-862
比倫	-863
而行	-864
▁ɛhɔ	-865
▁filis	-866
▁momma	-867
▁yudafo	-868
巴比倫	-869
▁yie	-870
▁po	-871
▁祭司	-872
▁anom	-873
之事	-874
▁nwo	-875
▁wɔan	-876
▁ɔyɛɛ	-877
▁dɔm	-878
▁nto	-879
▁wɔne	-880
▁anaasɛ	-881
▁babel	-882
▁nsraban	-883
▁salomo	-884
▁aha	-885
▁mama	-886
▁ahoɔden	-887
won	-888
之耶和華	-889
▁基	-890
萬軍	-891
kasa	-892
werɛ	-893
▁kye	-894
some	-895
▁nnua	-896
▁esiane	-897
▁od	-898
▁dɛn	-899
tenaa	-900
羅門	-901
▁ta	-902
▁fii	-903
raham	-904
▁fara	-905
▁mɛma	-906
forɔ	-907
▁bɛn	-908
▁abraham	-909
為爾	-910
▁farao	-911
▁akyire	-912
▁西	-913
woo	-914
ɔso	-915
▁tu	-916
▁民	-917
▁ɔkɔ	-918
▁baanu	-919
耶和華所	-920
之言	-921
isi	-922
▁及其	-923
▁耶和華歟	-924
▁bisaa	-925
▁aduonu	-926
二十	-927
amm	-928
▁bae	-929
▁wɔkɔ	-930
▁yose	-931
▁fɛ	-932
▁dua	-933
▁meyɛ	-934
lea	-935
▁nte	-936
▁animuonyam	-937
▁宜	-938
之日	-939
▁yosef	-940
▁ɛnneɛ	-941
▁anuonyam	-942
利士	-943
▁耶和華曰	-944
▁nhyira	-945
▁豈	-946
▁adɔ	-947
▁ahennie	-948
li	-949
▁希	-950
▁毋	-951
▁obe	-952
▁agye	-953
▁atamfo	-954
▁tenabea	-955
▁瑪	-956
▁ahu	-957
unumu	-958
▁主耶和華	-959
tro	-960
▁nim	-961
▁bɛka	-962
▁wɔren	-963
牧伯	-964
oɔma	-965
▁kwa	-966
▁tie	-967
▁agyapa	-968
▁nnoɔma	-969
ease	-970
▁nnum	-971
▁anyame	-972
▁filistifoɔ	-973
▁各	-974
▁置	-975
ani	-976
yɛfo	-977
mmarima	-978
rim	-979
hyɛɛ	-980
▁min	-981
▁lewifoɔ	-982
燔祭	-983
書亞	-984
▁爾曹	-985
pɔnkɔ	-986
▁kɛse	-987
▁basafa	-988
猶太	-989
toa	-990
▁anant	-991
▁gyina	-992
soa	-993
win	-994
▁yiye	-995
bɔne	-996
▁nwoma	-997
於彼	-998
▁wan	-999
▁werɛ	-1000
法老	-1001
▁pan	-1002
▁aboɔ	-1003
▁adaka	-1004
▁asomdwoeɛ	-1005
deɛn	-1006
▁mmɛ	-1007
rantɛ	-1008
▁meren	-1009
▁nkrantɛ	-1010
▁時	-1011
▁buaa	-1012
▁nant	-1013
▁nipa	-1014
▁取	-1015
hwam	-1016
▁guu	-1017
以色列族	-1018
▁home	-1019
▁ɔkwan	-1020
▁ɛdeɛn	-1021
▁往	-1022
wɛn	-1023
berɛ	-1024
▁boa	-1025
▁ɔbɔ	-1026
▁foforo	-1027
▁大	-1028
▁ɔhyeɛ	-1029
▁歷	-1030
▁諸	-1031
我者	-1032
於地	-1033
爾者	-1034
利未人	-1035
afoɔ	-1036
▁ɔsom	-1037
▁nkaeɛ	-1038
▁petro	-1039
du	-1040
▁欲	-1041
▁立	-1042
斯土	-1043
sii	-1044
wadeɛ	-1045
▁paulo	-1046
▁悉	-1047
▁米	-1048
之所	-1049
其子	-1050
▁sim	-1051
▁woyɛ	-1052
▁ɔfiri	-1053
▁撒	-1054
中之	-1055
▁未	-1056
▁ɔko	-1057
▁amane	-1058
▁abe	-1059
kyeree	-1060
我曰	-1061
hoa	-1062
gyeɛ	-1063
▁sane	-1064
▁ɔmaa	-1065
▁哈	-1066
列祖	-1067
mfoɔ	-1068
▁meka	-1069
▁bosome	-1070
▁但	-1071
eni	-1072
▁ɔse	-1073
▁awie	-1074
▁nkon	-1075
▁yosua	-1076
列邦	-1077
▁hye	-1078
▁dodoɔ	-1079
▁nkurɔfo	-1080
▁依	-1081
▁tɔ	-1082
▁ɛpo	-1083
hoɔ	-1084
▁ɛse	-1085
二人	-1086
與爾	-1087
bisa	-1088
▁ɛne	-1089
umuyɛ	-1090
amu	-1091
▁ɛdi	-1092
hunuu	-1093
四周	-1094
為之	-1095
▁ge	-1096
拉罕	-1097
▁abi	-1098
▁mayɛ	-1099
▁yeho	-1100
▁atemmu	-1101
之以	-1102
mmaa	-1103
▁wore	-1104
萬軍之耶和華	-1105
▁foforɔ	-1106
▁amumuyɛ	-1107
▁示	-1108
▁ɔdi	-1109
▁ankasa	-1110
▁免	-1111
不能	-1112
與其	-1113
brɛ	-1114
▁我則	-1115
▁mpanim	-1116
▁yoh	-1117
▁hwee	-1118
▁迨	-1119
pɔmma	-1120
▁mode	-1121
居民	-1122
tuu	-1123
▁ɔt	-1124
mɔne	-1125
▁bra	-1126
▁mmo	-1127
▁ɔbo	-1128
▁ɛre	-1129
▁pono	-1130
一人	-1131
kwa	-1132
wiri	-1133
▁ɛserɛ	-1134
▁abusuakuo	-1135
onhwa	-1136
▁ɔmfa	-1137
▁mmepɔ	-1138
爾上帝耶和華	-1139
昆弟	-1140
行之	-1141
▁bobe	-1142
▁mmammaa	-1143
ke	-1144
▁aye	-1145
▁san	-1146
▁ɛte	-1147
radeɛ	-1148
▁reba	-1149
▁迦	-1150
▁於是	-1151
▁ɔdɔ	-1152
▁koraa	-1153
使者	-1154
kra	-1155
onam	-1156
▁woo	-1157
▁gyee	-1158
▁agyapadeɛ	-1159
▁咸	-1160
huu	-1161
▁其人	-1162
▁adwa	-1163
▁hyeɛ	-1164
▁apono	-1165
▁ananmu	-1166
▁以其	-1167
▁monyɛ	-1168
dɔm	-1169
▁掃羅	-1170
言之矣	-1171
▁yor	-1172
yiaa	-1173
▁yordan	-1174
▁謂	-1175
葡萄	-1176
▁pi	-1177
▁蓋我	-1178
eɛma	-1179
ɛnam	-1180
▁ata	-1181
▁apue	-1182
▁nneɛma	-1183
easeɛnam	-1184
ɔpa	-1185
gyee	-1186
▁yoa	-1187
▁anɔpa	-1188
fɛ	-1189
▁得	-1190
之而	-1191
▁bet	-1192
▁kum	-1193
▁尚	-1194
▁efie	-1195
不得	-1196
祈禱	-1197
ome	-1198
▁是日	-1199
▁與其	-1200
▁ay	-1201
子孫	-1202
▁akyɛ	-1203
▁amon	-1204
frɛɛ	-1205
▁too	-1206
▁baeɛ	-1207
▁kɔsii	-1208
▁夫	-1209
聖所	-1210
mmɔ	-1211
▁efra	-1212
▁moab	-1213
▁wobe	-1214
▁abufu	-1215
▁居	-1216
boɔ	-1217
▁彼必	-1218
▁ahan	-1219
▁apɔnkɔ	-1220
▁ntadeɛ	-1221
如是	-1222
▁至於	-1223
▁雅各	-1224
yɛne	-1225
▁ɔma	-1226
wɔtwe	-1227
▁aban	-1228
▁abufuo	-1229
於上帝	-1230
▁ofi	-1231
▁som	-1232
▁aboa	-1233
▁adua	-1234
▁yɛbɛ	-1235
▁adanse	-1236
▁eb	-1237
▁我之	-1238
▁我乃	-1239
語之曰	-1240
korɔ	-1241
soma	-1242
▁twa	-1243
kɛseɛ	-1244
yamin	-1245
▁wɔfiri	-1246
摩押	-1247
雅憫	-1248
homa	-1249
wonwa	-1250
▁koma	-1251
▁moyɛ	-1252
▁anomu	-1253
▁巴	-1254
安息	-1255
▁nifa	-1256
▁asɛmpa	-1257
▁asɔredan	-1258
▁benyamin	-1259
▁入	-1260
保羅	-1261
▁爾所	-1262
▁kɔn	-1263
▁ahyɛdeɛ	-1264
為其	-1265
pam	-1266
▁nnɔ	-1267
▁asɔfo	-1268
pem	-1269
▁isa	-1270
▁ɛso	-1271
nhyia	-1272
▁hann	-1273
▁kane	-1274
▁以色列人	-1275
siesie	-1276
▁hunuu	-1277
fom	-1278
kɔm	-1279
rub	-1280
gyaa	-1281
ɔnko	-1282
▁atɔ	-1283
▁ayi	-1284
▁ampa	-1285
▁yohane	-1286
▁aduonum	-1287
▁anantwie	-1288
▁攜	-1289
kae	-1290
rom	-1291
▁koro	-1292
▁ɔnam	-1293
▁厥	-1294
之物	-1295
法蓮	-1296
▁亞倫	-1297
便雅憫	-1298
▁amma	-1299
ɔnefoɔ	-1300
fe	-1301
▁惡	-1302
見之	-1303
fie	-1304
ona	-1305
anom	-1306
▁kɔe	-1307
耶和華室	-1308
renee	-1309
▁babaa	-1310
▁wɔfrɛ	-1311
今日	-1312
nom	-1313
srɛ	-1314
告爾	-1315
▁我不	-1316
瑪利亞	-1317
▁sen	-1318
▁papa	-1319
▁ɛnam	-1320
▁honam	-1321
▁agyina	-1322
▁anuanom	-1323
sum	-1324
▁因其	-1325
▁efraim	-1326
▁爾必	-1327
yifo	-1328
▁ɔfa	-1329
▁rekɔ	-1330
▁apueeɛ	-1331
▁nnyina	-1332
▁kronkronbea	-1333
之為	-1334
者也	-1335
贖罪	-1336
▁mewɔ	-1337
▁ɔdii	-1338
▁aduan	-1339
▁mmapɔmma	-1340
iel	-1341
twerɛ	-1342
▁owia	-1343
▁並	-1344
之處	-1345
異邦	-1346
而出	-1347
wea	-1348
▁wi	-1349
▁ɔren	-1350
之上帝耶和華	-1351
fu	-1352
▁獻	-1353
▁緣	-1354
以為	-1355
bɛn	-1356
▁wie	-1357
▁frɛɛ	-1358
▁kana	-1359
▁aduasa	-1360
▁告	-1361
與之	-1362
長老	-1363
duruu	-1364
▁brɛɛ	-1365
▁tenenee	-1366
之民	-1367
利米	-1368
▁nnye	-1369
▁求	-1370
不潔	-1371
▁mɛyɛ	-1372
▁nsɛn	-1373
▁ntɛm	-1374
▁nsase	-1375
▁萬軍之耶和華	-1376
▁nnebɔne	-1377
▁mfirinhyia	-1378
▁出	-1379
亞倫	-1380
智慧	-1381
▁我所	-1382
利士人	-1383
wenn	-1384
▁akɔsi	-1385
▁biribi	-1386
▁we	-1387
▁dun	-1388
▁nya	-1389
▁tia	-1390
▁dwom	-1391
▁elia	-1392
▁wɔnn	-1393
▁kyerɛw	-1394
ina	-1395
▁mom	-1396
▁ngu	-1397
▁yona	-1398
▁婦	-1399
三十	-1400
row	-1401
▁基督	-1402
anee	-1403
▁ayɛyɛ	-1404
▁mpanyin	-1405
▁mmammarima	-1406
▁誰	-1407
會眾	-1408
爾曹	-1409
約但	-1410
twaa	-1411
kamfo	-1412
▁nkɔm	-1413
▁sion	-1414
▁nkurɔfoɔ	-1415
hyeɛ	-1416
▁atwa	-1417
▁nkye	-1418
▁wɔnam	-1419
▁yɔnko	-1420
▁kanaan	-1421
▁u	-1422
拯救	-1423
頌美	-1424
猶太人	-1425
pono	-1426
amfoɔ	-1427
▁atia	-1428
▁baabi	-1429
▁kurow	-1430
不知	-1431
我於	-1432
mia	-1433
▁ntoa	-1434
▁asafohene	-1435
拿單	-1436
▁sɔ	-1437
▁以為	-1438
ummi	-1439
▁foro	-1440
▁more	-1441
▁wodi	-1442
▁wowɔ	-1443
▁dummi	-1444
▁odiyifoɔ	-1445
七日	-1446
之兮	-1447
所為	-1448
▁anwu	-1449
▁ɔbea	-1450
wennini	-1451
▁manase	-1452
ki	-1453
及其	-1454
拿西	-1455
伯拉罕	-1456
▁sum	-1457
▁yii	-1458
hyiaa	-1459
▁adom	-1460
▁tiri	-1461
▁sama	-1462
▁比	-1463
為聖	-1464
amma	-1465
▁ban	-1466
▁heb	-1467
▁duru	-1468
▁mmɔbɔ	-1469
▁somaa	-1470
▁ahenni	-1471
▁mfrafra	-1472
所言	-1473
pae	-1474
▁爾當	-1475
gyinaa	-1476
kyerɛn	-1477
▁kɔbere	-1478
▁ayɛyɛdeɛ	-1479
與我	-1480
rem	-1481
sea	-1482
▁不復	-1483
▁使之	-1484
kyiri	-1485
▁asɛn	-1486
▁asiria	-1487
▁akyiwadeɛ	-1488
▁mfrafraeɛ	-1489
之一	-1490
其人	-1491
利雅	-1492
▁oo	-1493
antan	-1494
▁aduɔ	-1495
▁tenaa	-1496
▁mframa	-1497
▁yeremia	-1498
▁nsɛnkyerɛn	-1499
ga	-1500
▁視	-1501
子約	-1502
▁hi	-1503
umfoɔ	-1504
▁faako	-1505
▁monkɔ	-1506
▁asefoɔ	-1507
▁adiyifoɔ	-1508
知我	-1509
聽我	-1510
▁惟爾	-1511
bena	-1512
▁ahwɛ	-1513
▁awoɔ	-1514
kyerɛw	-1515
▁建	-1516
▁後	-1517
▁日	-1518
亞比	-1519
使爾	-1520
族長	-1521
▁使爾	-1522
amuel	-1523
▁monhwɛ	-1524
ut	-1525
▁同	-1526
▁地	-1527
會幕	-1528
sar	-1529
lead	-1530
▁gilead	-1531
▁samuel	-1532
▁奉	-1533
之時	-1534
所有	-1535
所羅門	-1536
boam	-1537
▁yam	-1538
▁hena	-1539
▁wɔdi	-1540
▁ɛdan	-1541
▁耶和華之	-1542
▁atena	-1543
▁anwumm	-1544
▁ɛsiane	-1545
▁afoforo	-1546
▁mpanimfoɔ	-1547
▁ɔpɛ	-1548
▁apem	-1549
▁ahyiaeɛ	-1550
五十	-1551
buu	-1552
ele	-1553
出埃及	-1554
▁huu	-1555
▁sie	-1556
▁猶	-1557
子女	-1558
曠野	-1559
波安	-1560
起而	-1561
▁ki	-1562
摩西曰	-1563
羅波安	-1564
▁awia	-1565
▁tete	-1566
eneeni	-1567
子以	-1568
duu	-1569
▁la	-1570
▁如是	-1571
▁tiaa	-1572
▁wɔnyɛ	-1573
▁nimdeɛ	-1574
▁atitire	-1575
▁nteaseɛnam	-1576
▁守	-1577
於此	-1578
聞之	-1579
▁oh	-1580
▁yoab	-1581
▁ɔbɔɔ	-1582
▁wɔkɔɔ	-1583
▁歸	-1584
為王	-1585
guan	-1586
siee	-1587
▁afena	-1588
▁siria	-1589
素祭	-1590
▁ɔsa	-1591
▁bɛsi	-1592
▁hese	-1593
▁anafoɔ	-1594
十二	-1595
我主	-1596
綿羊	-1597
預言	-1598
▁謂之曰	-1599
巴比倫王	-1600
▁adum	-1601
▁anya	-1602
▁isak	-1603
▁wadi	-1604
▁ahodoɔ	-1605
▁dummienu	-1606
其中	-1607
典章	-1608
bɔn	-1609
mfi	-1610
nua	-1611
una	-1612
wuo	-1613
▁人子	-1614
▁mete	-1615
▁wɔmm	-1616
▁mmɔbo	-1617
而不	-1618
而來	-1619
西家	-1620
食之	-1621
sra	-1622
▁以利	-1623
korɛ	-1624
▁ɔda	-1625
▁asoma	-1626
巴力	-1627
慈惠	-1628
生命	-1629
安息日	-1630
unta	-1631
ɔhoɔ	-1632
▁asɛ	-1633
▁baal	-1634
▁wayɛ	-1635
▁ɔhaw	-1636
ranteɛ	-1637
▁hesekia	-1638
▁samaria	-1639
立於	-1640
而誓	-1641
▁因爾	-1642
isii	-1643
yare	-1644
▁所羅門	-1645
▁asuo	-1646
▁edom	-1647
▁moan	-1648
▁nhyɛ	-1649
▁kyɛfa	-1650
▁wɔant	-1651
▁wɔnni	-1652
▁nokorɛ	-1653
▁ntoatoa	-1654
▁kyerɛwsɛm	-1655
▁向	-1656
之室	-1657
諸邑	-1658
於以色列	-1659
▁afie	-1660
▁ɛyɛɛ	-1661
▁aware	-1662
▁awerɛ	-1663
▁nkyerɛkyerɛ	-1664
▁nnebɔneyɛfo	-1665
▁i	-1666
▁導	-1667
者曰	-1668
▁而不	-1669
▁brɛ	-1670
▁nnya	-1671
▁nhoma	-1672
▁afahyɛ	-1673
▁nkonim	-1674
▁牡	-1675
▁遣	-1676
基列	-1677
mum	-1678
▁tɛ	-1679
▁ahye	-1680
▁bɛto	-1681
▁maka	-1682
▁rebɛ	-1683
▁asaman	-1684
▁akyirikyiri	-1685
▁心	-1686
▁暨	-1687
母耳	-1688
▁nu	-1689
▁循其	-1690
wono	-1691
kyerɛɛ	-1692
▁adidi	-1693
▁拉	-1694
不復	-1695
何為	-1696
知之	-1697
▁此乃	-1698
▁osu	-1699
▁ɔtɔ	-1700
robɛn	-1701
▁wɔayɛ	-1702
▁homeda	-1703
▁yudahene	-1704
人所	-1705
▁dea	-1706
dwiri	-1707
▁dwane	-1708
▁ɛbɛba	-1709
▁bonhwa	-1710
▁aduhwam	-1711
▁共	-1712
▁復	-1713
▁生	-1714
四十	-1715
▁在彼	-1716
dwane	-1717
enten	-1718
▁anida	-1719
▁memaa	-1720
kyerɛfo	-1721
robɛnto	-1722
▁nipadua	-1723
▁yonatan	-1724
▁從	-1725
寅畏	-1726
聽之	-1727
ema	-1728
sam	-1729
▁使我	-1730
▁為我	-1731
▁nsia	-1732
▁yɛne	-1733
▁wɔadi	-1734
▁ɛpono	-1735
▁panyin	-1736
guu	-1737
▁則必	-1738
▁爾若	-1739
▁akye	-1740
於耶和華前	-1741
▁wɔyɛɛ	-1742
▁abɔfra	-1743
▁montie	-1744
▁sradeɛ	-1745
▁ntoatoasoɔ	-1746
ot	-1747
▁二	-1748
其地	-1749
▁我以	-1750
於其前	-1751
kura	-1752
▁nsi	-1753
▁anyɛ	-1754
▁atua	-1755
▁dodo	-1756
▁soma	-1757
▁yare	-1758
▁sorɔn	-1759
▁akɛseɛ	-1760
▁ahantan	-1761
▁anwonwa	-1762
nu	-1763
▁加	-1764
▁尼	-1765
子亞	-1766
山羊	-1767
有人	-1768
殺之	-1769
迦南	-1770
▁無人	-1771
▁蓋爾	-1772
mufo	-1773
▁ɛfa	-1774
▁baasa	-1775
▁ɔhyɛɛ	-1776
▁ɔsomaa	-1777
▁anigyeɛ	-1778
▁baabiara	-1779
▁付	-1780
▁永	-1781
偶像	-1782
lon	-1783
▁約瑟	-1784
hwie	-1785
witwa	-1786
▁mese	-1787
▁atoro	-1788
▁anwummerɛ	-1789
呼籲	-1790
▁ɔfaa	-1791
▁ɔkye	-1792
▁ɛkɔm	-1793
▁ɛnne	-1794
winini	-1795
▁panin	-1796
▁wiram	-1797
▁atamfoɔ	-1798
▁asomdwoe	-1799
▁命	-1800
▁越	-1801
三日	-1802
不可	-1803
民之	-1804
沙龍	-1805
約瑟	-1806
gua	-1807
wee	-1808
mmuo	-1809
▁trɛ	-1810
▁mube	-1811
▁wama	-1812
▁wɔkaa	-1813
▁bɛtena	-1814
▁atemmuo	-1815
▁amanehunu	-1816
▁天	-1817
▁言	-1818
呼曰	-1819
爾於	-1820
福音	-1821
koɔ	-1822
tuo	-1823
於爾前	-1824
risi	-1825
sene	-1826
susu	-1827
▁ɔto	-1828
▁ɛma	-1829
▁akum	-1830
▁korɔ	-1831
▁munn	-1832
▁nkyɛ	-1833
▁yɛyɛ	-1834
▁mmaako	-1835
▁耶和華諭摩西曰	-1836
pi	-1837
▁恐	-1838
之邑	-1839
列王	-1840
ser	-1841
aawa	-1842
▁atu	-1843
hyira	-1844
rante	-1845
yerɛn	-1846
▁bɛkɔ	-1847
▁suro	-1848
▁adane	-1849
▁mmerɛ	-1850
▁ɔhunu	-1851
▁ɔbaako	-1852
▁aduanan	-1853
▁mununkum	-1854
以此	-1855
猶大人	-1856
yera	-1857
▁pon	-1858
bisaa	-1859
uruwa	-1860
▁ahia	-1861
▁bɛdi	-1862
▁deda	-1863
unkumm	-1864
▁dɔɔso	-1865
▁中	-1866
▁孰	-1867
公義	-1868
區別	-1869
如此	-1870
滅之	-1871
omm	-1872
pɛn	-1873
▁ar	-1874
▁如爾	-1875
▁彼乃	-1876
amfa	-1877
▁bua	-1878
▁ankɔ	-1879
▁midi	-1880
▁adɔeɛ	-1881
之裔	-1882
客勒	-1883
語爾	-1884
撒瑪利亞	-1885
tefoɔ	-1886
▁yɛde	-1887
▁woren	-1888
▁義	-1889
地之	-1890
而言	-1891
迦勒	-1892
saa	-1893
tɔn	-1894
▁亞比	-1895
▁amo	-1896
renom	-1897
rifoɔ	-1898
▁kunu	-1899
▁nebu	-1900
▁wɔbɔɔ	-1901
▁ɛberɛ	-1902
▁hwehwɛ	-1903
▁sorɔnso	-1904
▁已	-1905
▁長	-1906
坐於	-1907
平康	-1908
知其	-1909
▁主歟	-1910
▁惟彼	-1911
▁我亦	-1912
▁故我	-1913
舍客勒	-1914
onto	-1915
▁ɛbaa	-1916
▁asene	-1917
▁anigye	-1918
▁nnommum	-1919
▁yudafoɔ	-1920
▁偕	-1921
▁錫	-1922
之聲	-1923
取之	-1924
我兮	-1925
tew	-1926
▁我心	-1927
▁爾乃	-1928
twɛn	-1929
以色列眾	-1930
▁ɔhwɛ	-1931
▁ahoni	-1932
▁nneyɛɛ	-1933
▁nantwie	-1934
▁較	-1935
荒蕪	-1936
sɛɛ	-1937
▁兄弟	-1938
▁又有	-1939
▁aku	-1940
▁sime	-1941
▁yɛre	-1942
▁ɔnni	-1943
barima	-1944
▁awufo	-1945
▁hyiae	-1946
▁nananom	-1947
▁akronkron	-1948
▁mmusuakuo	-1949
▁amanamanmufo	-1950
▁作	-1951
予之	-1952
其言	-1953
在此	-1954
室家	-1955
ete	-1956
rika	-1957
sɛpɛ	-1958
▁ahi	-1959
bereɛ	-1960
▁nhwɛ	-1961
▁yero	-1962
▁ɔkɔɔ	-1963
▁ɛdɔm	-1964
▁ɛnsɛ	-1965
▁bɛdii	-1966
▁bɛhyɛ	-1967
▁nnome	-1968
▁paano	-1969
▁利	-1970
▁每	-1971
之神	-1972
啟行	-1973
者乎	-1974
don	-1975
約書亞	-1976
▁ɛhe	-1977
▁ntwe	-1978
▁wɔbɔ	-1979
▁蓋耶和華	-1980
hiahia	-1981
▁ntena	-1982
▁asomfo	-1983
▁anwonwade	-1984
▁擊	-1985
▁焚	-1986
▁聞	-1987
▁ok	-1988
▁ra	-1989
▁不得	-1990
kuro	-1991
twam	-1992
▁amm	-1993
▁ɛba	-1994
▁nyaa	-1995
▁ɔkwa	-1996
▁ɛnnɛ	-1997
▁耶路撒冷	-1998
▁gyata	-1999
▁雅	-2000
亞蘭	-2001
使之	-2002
律例	-2003
擊之	-2004
死者	-2005
謳歌	-2006
▁fɔ	-2007
▁又曰	-2008
▁蓋彼	-2009
boaa	-2010
bubu	-2011
▁ntɔ	-2012
▁asie	-2013
▁komm	-2014
▁twam	-2015
▁abɔfo	-2016
▁dwuma	-2017
▁wonni	-2018
▁mereka	-2019
▁雖	-2020
之名	-2021
亞述	-2022
以其	-2023
夫長	-2024
聖靈	-2025
fat	-2026
▁dɛ	-2027
enaa	-2028
salom	-2029
▁ɛren	-2030
▁wɔdii	-2031
▁paanoo	-2032
▁yerenom	-2033
▁拿	-2034
▁殺	-2035
人者	-2036
得之	-2037
kuw	-2038
yie	-2039
ɔnn	-2040
於爾中	-2041
nkwa	-2042
▁eli	-2043
▁esa	-2044
▁kal	-2045
▁wɔm	-2046
▁ɛka	-2047
非利士人	-2048
▁mepɛ	-2049
▁mika	-2050
▁mmua	-2051
▁woan	-2052
▁dadeɛ	-2053
▁nkoto	-2054
▁ntoto	-2055
▁ɔbɛma	-2056
▁主耶和華曰	-2057
yansafoɔ	-2058
▁agyenkwa	-2059
▁汝	-2060
其名	-2061
我為	-2062
耶利米	-2063
pren	-2064
▁sei	-2065
▁hyɛn	-2066
▁kɔka	-2067
▁nhye	-2068
▁twaa	-2069
▁asraa	-2070
▁woayɛ	-2071
▁nnomaa	-2072
▁nnwetɛ	-2073
kyekyere	-2074
▁absalom	-2075
▁atemmudeɛ	-2076
▁遵	-2077
勇士	-2078
死亡	-2079
hui	-2080
▁hia	-2081
▁ahon	-2082
▁esau	-2083
▁mman	-2084
▁ogye	-2085
▁以色列族	-2086
▁abufuw	-2087
▁mmirika	-2088
▁asamando	-2089
之道	-2090
亞哈	-2091
以利	-2092
唎㘔	-2093
喜樂	-2094
少者	-2095
爾名	-2096
誡命	-2097
金銀	-2098
▁es	-2099
以法蓮	-2100
𠵽唎㘔	-2101
enya	-2102
▁boɔ	-2103
▁ahwe	-2104
▁dabi	-2105
▁wɔpɛ	-2106
▁ɔhyɛ	-2107
▁ɔtoo	-2108
▁耶和華言之矣	-2109
▁nnwetɛbena	-2110
▁akronkronneɛ	-2111
▁伊	-2112
▁來	-2113
成為	-2114
所行	-2115
見其	-2116
lia	-2117
▁尚其	-2118
▁視哉	-2119
以利亞	-2120
▁afu	-2121
▁ɔpa	-2122
▁sare	-2123
▁wone	-2124
▁aniwa	-2125
▁awiei	-2126
▁mprem	-2127
▁ɔbɛyɛ	-2128
▁bɛfiri	-2129
▁yehosa	-2130
▁ɔfasuo	-2131
▁mmɔborɔ	-2132
▁yeroboam	-2133
▁被	-2134
悖逆	-2135
爾以	-2136
脫於	-2137
▁彼得	-2138
▁我已	-2139
▁obu	-2140
▁約書亞	-2141
▁daeɛ	-2142
▁kalde	-2143
▁monka	-2144
▁mprempren	-2145
▁僕	-2146
▁多	-2147
▁押	-2148
▁毀	-2149
之祭	-2150
以東	-2151
全地	-2152
我民	-2153
摩利	-2154
爾為	-2155
諸事	-2156
pan	-2157
wii	-2158
kora	-2159
kyin	-2160
wuwu	-2161
▁frɛ	-2162
▁pin	-2163
▁ɛha	-2164
▁mowɔ	-2165
▁seba	-2166
▁ɔwoo	-2167
▁dedaw	-2168
▁mpaebɔ	-2169
▁nhunumu	-2170
dɛ	-2171
▁三	-2172
▁吾	-2173
▁手	-2174
復起	-2175
王之	-2176
西亞	-2177
dne	-2178
▁ot	-2179
▁埃及	-2180
▁我主	-2181
▁爾則	-2182
▁門徒	-2183
於其中	-2184
difo	-2185
dnes	-2186
duro	-2187
elek	-2188
▁eye	-2189
▁gad	-2190
▁oyi	-2191
▁wofi	-2192
kadnes	-2193
▁abien	-2194
▁elisa	-2195
▁kakra	-2196
▁minim	-2197
▁ɔbɔfo	-2198
▁ahosɛpɛ	-2199
kadnessar	-2200
▁abɔnefoɔ	-2201
▁asekyerɛ	-2202
▁nebukadnessar	-2203
hɔ	-2204
所命	-2205
甲尼	-2206
軍旅	-2207
軍長	-2208
hom	-2209
sai	-2210
yim	-2211
▁is	-2212
▁彼將	-2213
▁置於	-2214
▁bem	-2215
▁ɔmm	-2216
亞伯拉罕	-2217
tofoɔ	-2218
▁wɔse	-2219
▁yɛwɔ	-2220
▁ɔten	-2221
▁mesrɛ	-2222
▁monni	-2223
▁siane	-2224
▁ɔsɔfo	-2225
▁abakan	-2226
▁afiase	-2227
▁awieeɛ	-2228
▁adiyifo	-2229
▁ɔteneneeni	-2230
事之	-2231
偕爾	-2232
如何	-2233
崇拜	-2234
無所	-2235
行此	-2236
鄉里	-2237
ame	-2238
dia	-2239
▁法老	-2240
猶大王	-2241
▁ɔbu	-2242
以色列王	-2243
▁ahab	-2244
▁wɔmaa	-2245
▁amamfo	-2246
▁nnompe	-2247
▁abufuhyeɛ	-2248
▁明	-2249
▁烏	-2250
▁維	-2251
▁離	-2252
之眾	-2253
斯民	-2254
於天	-2255
沙法	-2256
相對	-2257
者必	-2258
而得	-2259
貨財	-2260
ela	-2261
▁不能	-2262
▁其上	-2263
annwa	-2264
▁susu	-2265
▁wɔto	-2266
▁ɔseɛ	-2267
▁ɛwom	-2268
▁ntama	-2269
▁wɔfaa	-2270
▁wɔnkɔ	-2271
▁nnwuma	-2272
▁trenee	-2273
▁afɔrebɔ	-2274
▁mmeranteɛ	-2275
▁傾	-2276
主之	-2277
之罪	-2278
何耶	-2279
在爾	-2280
尼布	-2281
米勒	-2282
肉體	-2283
fta	-2284
trɛ	-2285
▁爾將	-2286
甲尼撒	-2287
rɔmm	-2288
▁tuu	-2289
▁ɛwo	-2290
aadaa	-2291
▁mmɛn	-2292
▁moka	-2293
▁ahanu	-2294
▁akane	-2295
▁nkata	-2296
▁wɔaka	-2297
▁adagya	-2298
▁atadeɛ	-2299
▁abannwa	-2300
▁adanseɛ	-2301
▁amonfoɔ	-2302
▁asomafo	-2303
▁nnanson	-2304
▁受	-2305
▁論	-2306
▁食	-2307
其父	-2308
對曰	-2309
希伯	-2310
爾僕	-2311
而至	-2312
行於	-2313
hem	-2314
tam	-2315
fira	-2316
funu	-2317
▁edi	-2318
▁nin	-2319
▁tim	-2320
▁ɔnn	-2321
▁ɔsɛ	-2322
yiraa	-2323
▁asɛe	-2324
▁esum	-2325
▁gali	-2326
▁yehu	-2327
▁ɔnyɛ	-2328
▁ahoho	-2329
▁atɔeɛ	-2330
▁bepɔw	-2331
▁nsɛnkyerɛnneɛ	-2332
▁父	-2333
之命	-2334
使我	-2335
干罪	-2336
臣僕	-2337
邑門	-2338
▁om	-2339
sisi	-2340
▁nsɔ	-2341
dɔɔso	-2342
▁anni	-2343
▁ɔkae	-2344
▁wɔbaa	-2345
▁wɔkan	-2346
▁ahonya	-2347
▁ntaban	-2348
列國	-2349
彼得	-2350
葡萄園	-2351
onsam	-2352
▁ason	-2353
▁ayam	-2354
▁kosi	-2355
▁nteɛ	-2356
▁dodow	-2357
▁kerub	-2358
▁afasuo	-2359
▁mommma	-2360
▁nnansa	-2361
▁twetia	-2362
▁aduɔson	-2363
▁伯	-2364
▁名	-2365
▁隨	-2366
之女	-2367
之血	-2368
右手	-2369
於諸	-2370
族祖	-2371
約翰	-2372
rae	-2373
▁厥後	-2374
sare	-2375
▁api	-2376
▁sɛɛ	-2377
▁人子歟	-2378
dwene	-2379
yinom	-2380
▁ayuo	-2381
▁ahuhu	-2382
▁amena	-2383
▁nnɔba	-2384
▁wɔato	-2385
▁eyinom	-2386
▁yehoia	-2387
▁ɔhɔhoɔ	-2388
▁ɔbɔnefoɔ	-2389
▁ahohiahia	-2390
▁asiriahene	-2391
▁第	-2392
▁轉	-2393
永存	-2394
遺民	-2395
lek	-2396
▁惟我	-2397
▁願爾	-2398
祭司長	-2399
▁rub	-2400
▁ɛde	-2401
raman	-2402
▁abɛn	-2403
▁apon	-2404
▁kora	-2405
▁woka	-2406
imelek	-2407
risifo	-2408
▁ruben	-2409
▁asadeɛ	-2410
▁mpoano	-2411
▁wɔbɛka	-2412
▁asraafo	-2413
▁farisifo	-2414
▁kaldeafoɔ	-2415
▁賜	-2416
其上	-2417
數人	-2418
真理	-2419
而歸	-2420
遣人	-2421
鋒刃	-2422
kɔn	-2423
▁今日	-2424
▁彼之	-2425
▁無論	-2426
dwoo	-2427
wira	-2428
▁apo	-2429
▁awɛ	-2430
▁撒母耳	-2431
koraa	-2432
▁bisa	-2433
▁bɛbɔ	-2434
▁ebia	-2435
rɔmmea	-2436
▁kanea	-2437
▁nguan	-2438
▁abɔfoɔ	-2439
▁rentumi	-2440
▁ɔbonsam	-2441
▁yehosafat	-2442
▁愛	-2443
世人	-2444
受割	-2445
可憎	-2446
尊榮	-2447
惡人	-2448
我以	-2449
無人	-2450
牛羊	-2451
稱謝	-2452
bua	-2453
tin	-2454
▁俾爾	-2455
▁nnu	-2456
aaboɔ	-2457
ammɔn	-2458
hyɛne	-2459
▁mote	-2460
▁mprɛ	-2461
▁mahyɛ	-2462
▁maria	-2463
▁moren	-2464
▁mpata	-2465
▁nyame	-2466
▁sorɔnsorɔmmea	-2467
▁恆	-2468
▁盡	-2469
律法	-2470
惡者	-2471
流便	-2472
doo	-2473
▁fu	-2474
▁不可	-2475
▁我誠	-2476
iɛsa	-2477
▁esi	-2478
▁ahin	-2479
▁dwoo	-2480
▁mmrɛ	-2481
▁wɔtu	-2482
▁ahome	-2483
▁kamfo	-2484
▁耶穌謂之曰	-2485
▁abiɛsa	-2486
▁nwɔtwe	-2487
▁anammɔn	-2488
▁mfunumu	-2489
kyerɛkyerɛ	-2490
▁nnyinasoɔ	-2491
▁終	-2492
世之	-2493
人也	-2494
信之	-2495
酬恩	-2496
hat	-2497
kem	-2498
▁亞哈	-2499
▁爾不	-2500
於我前	-2501
▁wui	-2502
▁yen	-2503
danee	-2504
yimfo	-2505
▁elea	-2506
▁daniel	-2507
▁nkuraa	-2508
▁ɛkyerɛ	-2509
▁ahwɛfoɔ	-2510
▁wɔhunuu	-2511
▁adidibea	-2512
▁mpanyimfo	-2513
▁上	-2514
▁能	-2515
七十	-2516
利巴	-2517
崇邱	-2518
於人	-2519
民眾	-2520
生者	-2521
▁保羅	-2522
▁我若	-2523
▁摩押	-2524
wini	-2525
▁nwu	-2526
▁wuo	-2527
▁以法蓮	-2528
▁koko	-2529
fohene	-2530
▁tirim	-2531
▁hebron	-2532
▁mmusuo	-2533
▁耶和華諭我曰	-2534
▁afunumu	-2535
▁他	-2536
▁廣	-2537
▁計	-2538
俘囚	-2539
如左	-2540
殿宇	-2541
瑪利	-2542
禍哉	-2543
震怒	-2544
mas	-2545
nwa	-2546
▁亞希	-2547
上帝室	-2548
▁ebe	-2549
▁fɛw	-2550
▁mfe	-2551
▁耶和華必	-2552
twitwa	-2553
▁fitaa	-2554
▁menyɛ	-2555
▁mommɔ	-2556
▁ɔsɔre	-2557
entensoɔ	-2558
▁misraimfoɔ	-2559
▁ntentensoɔ	-2560
▁書	-2561
不義	-2562
利利	-2563
取其	-2564
弗他	-2565
為誰	-2566
tom	-2567
▁以爾	-2568
▁俾我	-2569
▁因我	-2570
▁為爾	-2571
分之一	-2572
▁便雅憫	-2573
耶和華曰	-2574
▁adie	-2575
▁gyaa	-2576
▁kura	-2577
▁kɔeɛ	-2578
▁ɔyii	-2579
▁odwan	-2580
▁sisii	-2581
▁wonim	-2582
▁wɔmma	-2583
▁wɔtwe	-2584
▁ɔrekɔ	-2585
hommɔne	-2586
▁ahorow	-2587
▁kuruwa	-2588
▁merebɛ	-2589
▁wɔrekɔ	-2590
▁galilea	-2591
▁otumfoɔ	-2592
▁執	-2593
就之	-2594
從者	-2595
故土	-2596
於王	-2597
目睹	-2598
ana	-2599
▁有人	-2600
▁爾何	-2601
didi	-2602
▁ose	-2603
▁oti	-2604
▁上帝歟	-2605
▁瑪拿西	-2606
以色列之	-2607
▁mmea	-2608
▁korɔn	-2609
▁simon	-2610
▁wɔsom	-2611
▁ɔyɛeɛ	-2612
▁asaawa	-2613
▁mfitia	-2614
▁爾上帝耶和華	-2615
▁anidaso	-2616
▁wɔatwerɛ	-2617
▁odwennini	-2618
▁nantwinini	-2619
▁敵	-2620
▁用	-2621
以理	-2622
告我	-2623
役事	-2624
所載	-2625
有一	-2626
榮光	-2627
生子	-2628
禮物	-2629
sun	-2630
tii	-2631
▁亦必	-2632
▁爾既	-2633
於埃及	-2634
keka	-2635
kraa	-2636
▁nsɛ	-2637
hwɛfoɔ	-2638
▁bɔfoɔ	-2639
▁mpaeɛ	-2640
▁ntumi	-2641
▁sɔree	-2642
▁wɔwoo	-2643
▁akofoɔ	-2644
▁amfiri	-2645
▁nnamfo	-2646
▁wɔtete	-2647
▁ahohora	-2648
▁amorifoɔ	-2649
▁dwoodwoo	-2650
▁女	-2651
▁待	-2652
▁迄	-2653
使徒	-2654
宗族	-2655
獻之	-2656
百人	-2657
錫安	-2658
reɛ	-2659
umɔ	-2660
▁以撒	-2661
▁使其	-2662
瑪拿西	-2663
ante	-2664
▁nom	-2665
乃耶和華	-2666
𠵽唎㘔人	-2667
benya	-2668
kyire	-2669
▁bete	-2670
▁mayi	-2671
▁mpia	-2672
▁poma	-2673
▁ɔtwe	-2674
▁耶和華云	-2675
尼布甲尼撒	-2676
▁ahwie	-2677
▁dɔteɛ	-2678
▁fasuo	-2679
▁wɔhyɛ	-2680
▁benkum	-2681
▁eleasa	-2682
er	-2683
▁問	-2684
▁四	-2685
▁阿	-2686
▁集	-2687
之首	-2688
他神	-2689
入於	-2690
十字	-2691
安在	-2692
得救	-2693
遣之	-2694
香柏	-2695
fam	-2696
sɔn	-2697
ɛpɛ	-2698
▁二人	-2699
▁則曰	-2700
加利利	-2701
十字架	-2702
贖罪祭	-2703
koto	-2704
pene	-2705
wiee	-2706
▁amu	-2707
mfini	-2708
▁abrɛ	-2709
▁afuo	-2710
▁dumi	-2711
▁enni	-2712
▁kumm	-2713
▁leban	-2714
▁mekaa	-2715
▁woama	-2716
▁yɛnkɔ	-2717
▁atease	-2718
▁mmasoɔ	-2719
▁wɔatwa	-2720
▁mfimfini	-2721
▁施	-2722
▁衣	-2723
亦然	-2724
偕之	-2725
牲畜	-2726
獲罪	-2727
生存	-2728
若是	-2729
ton	-2730
▁先知	-2731
▁為之	-2732
▁bar	-2733
▁ebi	-2734
▁nyi	-2735
▁利未人	-2736
▁猶大王	-2737
以色列家	-2738
▁serɛ	-2739
▁循其室家	-2740
▁amumɔ	-2741
▁betel	-2742
▁wɔann	-2743
▁ɔyare	-2744
▁akatua	-2745
▁akyɛde	-2746
▁ebinom	-2747
▁midian	-2748
▁wɔbɛyɛ	-2749
▁ɔhunuu	-2750
▁ahengua	-2751
▁mehunuu	-2752
▁odiyifo	-2753
▁七	-2754
▁令	-2755
▁子	-2756
之間	-2757
告之	-2758
將至	-2759
左右	-2760
我名	-2761
為業	-2762
生之	-2763
而死	-2764
自天	-2765
逾越	-2766
陰府	-2767
bia	-2768
leam	-2769
▁nwe	-2770
▁ogu	-2771
耶和華前	-2772
difoɔ	-2773
romma	-2774
▁amra	-2775
▁kete	-2776
▁wopɛ	-2777
▁yɛeɛ	-2778
▁ɔmma	-2779
▁ɛteɛ	-2780
▁以色列王	-2781
hyehyɛ	-2782
▁munim	-2783
▁sekem	-2784
▁wɔayi	-2785
▁afenaa	-2786
▁dumien	-2787
▁kɛseyɛ	-2788
▁ɔbotan	-2789
▁lebanon	-2790
▁mmarato	-2791
▁nsoromma	-2792
▁十	-2793
▁強	-2794
▁首	-2795
一百	-2796
之父	-2797
何以	-2798
士師	-2799
多人	-2800
子耶	-2801
愈於	-2802
我父	-2803
戰慄	-2804
攻之	-2805
有所	-2806
爾言	-2807
特利	-2808
立之	-2809
興起	-2810
誠實	-2811
路伯	-2812
阿施	-2813
▁建營	-2814
▁我指	-2815
▁求爾	-2816
▁爾以	-2817
▁ehu	-2818
▁sun	-2819
▁wun	-2820
kɔbea	-2821
▁hada	-2822
▁hero	-2823
▁kaeɛ	-2824
▁nnim	-2825
▁sisi	-2826
▁turo	-2827
▁ahene	-2828
▁ahunu	-2829
▁ɔfrɛɛ	-2830
▁asubɔn	-2831
不聽	-2832
保障	-2833
士子	-2834
尼雅	-2835
我命	-2836
此事	-2837
ter	-2838
toɔ	-2839
▁亞撒	-2840
▁我在	-2841
上帝所	-2842
支派中	-2843
horo	-2844
lato	-2845
▁prɛ	-2846
▁sam	-2847
▁以利亞	-2848
▁其上為	-2849
▁是日也	-2850
mammɔ	-2851
▁rema	-2852
▁wote	-2853
▁ahuri	-2854
▁kurom	-2855
▁meyɛɛ	-2856
▁nnwom	-2857
▁aboson	-2858
▁amrado	-2859
▁onyame	-2860
▁pilato	-2861
weneduro	-2862
▁makyerɛ	-2863
▁mpanimfie	-2864
不見	-2865
亞捫	-2866
六十	-2867
尼珥	-2868
應曰	-2869
會堂	-2870
知爾	-2871
知識	-2872
而往	-2873
諸王	-2874
bue	-2875
dwa	-2876
guo	-2877
how	-2878
kai	-2879
res	-2880
rɔm	-2881
▁俾其	-2882
▁在於	-2883
迦勒底	-2884
酬恩祭	-2885
isie	-2886
ronn	-2887
saia	-2888
▁兄弟乎	-2889
▁希西家	-2890
antie	-2891
uosia	-2892
▁mfom	-2893
▁wɔfa	-2894
▁bɛkaa	-2895
▁menkɔ	-2896
▁nsuro	-2897
▁somfo	-2898
▁在耶路撒冷	-2899
▁anisoa	-2900
▁asetena	-2901
▁siriafoɔ	-2902
之上	-2903
之出	-2904
之家	-2905
二千	-2906
偕往	-2907
就爾	-2908
從之	-2909
患難	-2910
我也	-2911
未嘗	-2912
為大	-2913
has	-2914
nen	-2915
▁爾中	-2916
上帝歟	-2917
希西家	-2918
sani	-2919
tiri	-2920
▁dum	-2921
sifoɔ	-2922
▁wayi	-2923
▁wɔam	-2924
▁nkɔsi	-2925
▁wɔtee	-2926
▁ɔbɛka	-2927
▁我乃耶和華	-2928
▁bileam	-2929
▁kakraa	-2930
▁ɔkyena	-2931
▁nnɔbaeɛ	-2932
▁akoradeɛ	-2933
▁adwennini	-2934
▁安	-2935
▁試	-2936
▁起	-2937
上之	-2938
可惡	-2939
在天	-2940
大利	-2941
幽暗	-2942
挪亞	-2943
於壇	-2944
歸於	-2945
西雅	-2946
▁go	-2947
▁亦不	-2948
▁彼則	-2949
▁有一	-2950
▁爾亦	-2951
爸拉罕	-2952
bobɔ	-2953
dome	-2954
▁adɔe	-2955
▁ahum	-2956
▁hwɛɛ	-2957
▁sede	-2958
▁damas	-2959
▁ntwea	-2960
▁yadeɛ	-2961
kyerɛma	-2962
▁mahunu	-2963
▁ntonto	-2964
▁nwonwa	-2965
▁wɔahyɛ	-2966
▁aduosia	-2967
▁kanaanfoɔ	-2968
▁tɛkyerɛma	-2969
▁任	-2970
▁沙	-2971
▁詣	-2972
▁金	-2973
之中	-2974
予爾	-2975
即位	-2976
在彼	-2977
居於	-2978
獻祭	-2979
異象	-2980
禁食	-2981
稱為	-2982
精金	-2983
buo	-2984
fee	-2985
owa	-2986
▁乃為	-2987
▁亦有	-2988
▁今我	-2989
▁為其	-2990
▁與爾	-2991
諭摩西	-2992
tutu	-2993
▁tow	-2994
▁tua	-2995
▁wam	-2996
tadeɛ	-2997
▁kɔkɔ	-2998
▁ntwa	-2999
▁reho	-3000
▁waka	-3001
▁wiei	-3002
▁非利士人	-3003
yinsɛn	-3004
▁mehwɛ	-3005
▁nhyia	-3006
▁nsusu	-3007
▁ɔsane	-3008
▁abupɛn	-3009
▁ahanum	-3010
▁damasko	-3011
▁otitire	-3012
▁wɔahunu	-3013
▁ponkɛseɛ	-3014
▁akyerɛkyerɛfo	-3015
▁海	-3016
▁遇	-3017
▁邑	-3018
其前	-3019
其罪	-3020
吹角	-3021
困苦	-3022
方伯	-3023
民中	-3024
節期	-3025
者為	-3026
視為	-3027
言此	-3028
sen	-3029
▁ɛm	-3030
▁我曾	-3031
及其子	-3032
rane	-3033
▁noa	-3034
▁sɛe	-3035
▁yea	-3036
rekyi	-3037
▁adwo	-3038
▁amfa	-3039
▁aten	-3040
▁dane	-3041
▁onni	-3042
▁sara	-3043
▁wube	-3044
winneɛ	-3045
▁akɛse	-3046
▁atorɔ	-3047
▁bɔhyɛ	-3048
▁dwiri	-3049
▁mprɛn	-3050
▁ɛtene	-3051
▁dennen	-3052
▁animtia	-3053
▁kunkumm	-3054
▁按	-3055
▁曾	-3056
▁適	-3057
▁飲	-3058
之國	-3059
之婦	-3060
亞瑪	-3061
以斯	-3062
偕我	-3063
全能	-3064
其餘	-3065
原文	-3066
牡犢	-3067
而去	-3068
huo	-3069
ner	-3070
tim	-3071
tio	-3072
▁亞瑪	-3073
gyaw	-3074
▁apɛ	-3075
▁haw	-3076
▁see	-3077
▁sub	-3078
▁牡綿羊	-3079
▁buae	-3080
▁bɛda	-3081
▁makɔ	-3082
▁mate	-3083
▁saka	-3084
▁wɔba	-3085
▁亞伯拉罕	-3086
▁abner	-3087
▁memfa	-3088
▁prɛko	-3089
▁sofoɔ	-3090
▁woaka	-3091
▁bɛsane	-3092
▁mehyɛɛ	-3093
▁mmerɛw	-3094
▁wɔsiee	-3095
▁ɔtenaa	-3096
▁ahansia	-3097
▁gyidifo	-3098
▁kerubim	-3099
▁nnaadaa	-3100
▁abimelek	-3101
▁israelfo	-3102
▁anyansafoɔ	-3103
▁nnɔmmarima	-3104
▁去	-3105
▁年	-3106
▁舉	-3107
▁銀	-3108
信者	-3109
受之	-3110
於主	-3111
於眾	-3112
棄之	-3113
為己	-3114
福矣	-3115
立約	-3116
▁必以	-3117
▁王曰	-3118
▁蓋其	-3119
應之曰	-3120
於斯土	-3121
roma	-3122
tinn	-3123
▁ham	-3124
▁hes	-3125
▁mor	-3126
▁sra	-3127
▁sua	-3128
耶和華命	-3129
▁abia	-3130
▁mɛba	-3131
▁okum	-3132
▁onim	-3133
▁sebu	-3134
▁toto	-3135
▁woma	-3136
▁wɔma	-3137
▁yeri	-3138
▁ɔhye	-3139
▁ɔsii	-3140
▁abram	-3141
▁abusu	-3142
▁akasa	-3143
▁esiam	-3144
▁metee	-3145
▁ɔkasa	-3146
▁ɛhyeɛ	-3147
▁akodeɛ	-3148
▁asotwe	-3149
▁herode	-3150
▁mmorɔn	-3151
▁yesaia	-3152
▁nkontom	-3153
▁pintinn	-3154
▁teaseɛnam	-3155
▁israelhene	-3156
▁百	-3157
▁葬	-3158
▁近	-3159
中有	-3160
之手	-3161
亞撒	-3162
利哥	-3163
底改	-3164
方言	-3165
王曰	-3166
dab	-3167
dea	-3168
kim	-3169
obo	-3170
▁故爾	-3171
▁與之	-3172
上帝也	-3173
末底改	-3174
boro	-3175
kunu	-3176
ɔnnɔ	-3177
▁dom	-3178
▁ntu	-3179
dekai	-3180
▁pini	-3181
▁reyɛ	-3182
▁sera	-3183
▁yɛka	-3184
▁ɔboɔ	-3185
▁ɔkra	-3186
耶和華所惡	-3187
▁akyin	-3188
▁danee	-3189
▁kɔkɔɔ	-3190
▁ɛbɛma	-3191
知我乃耶和華	-3192
▁ababaa	-3193
▁abofra	-3194
▁merema	-3195
▁nkwagye	-3196
▁sakaria	-3197
▁ahurisie	-3198
▁mordekai	-3199
▁nkontompo	-3200
▁nsɛnkyerɛnne	-3201
ob	-3202
▁先	-3203
▁夜	-3204
▁始	-3205
▁宣	-3206
其家	-3207
夙興	-3208
容我	-3209
底家	-3210
拉多	-3211
斯巴	-3212
於山	-3213
有二	-3214
服役	-3215
法律	-3216
爾手	-3217
畢生	-3218
矜恤	-3219
約押	-3220
聖者	-3221
sow	-3222
▁彼眾	-3223
▁禍哉	-3224
▁約押	-3225
聽我言	-3226
非利士	-3227
hyɛn	-3228
mael	-3229
mpɔn	-3230
oboo	-3231
tini	-3232
▁die	-3233
▁mem	-3234
▁nwi	-3235
furae	-3236
uturo	-3237
▁asan	-3238
▁medi	-3239
▁mopɛ	-3240
▁nufo	-3241
▁owuo	-3242
▁abura	-3243
▁asefo	-3244
▁atade	-3245
▁basan	-3246
▁duruu	-3247
▁meyii	-3248
▁mpema	-3249
▁nokwa	-3250
▁petee	-3251
▁ɔsɛeɛ	-3252
furaefo	-3253
▁monnyɛ	-3254
▁yeriko	-3255
▁abooboo	-3256
▁ahwiesa	-3257
▁awɛmfoɔ	-3258
▁kɔduruu	-3259
▁sedekia	-3260
▁予	-3261
▁正	-3262
▁洗	-3263
▁爰	-3264
▁絕	-3265
▁足	-3266
▁高	-3267
仁慈	-3268
伊法	-3269
傾覆	-3270
其一	-3271
嗣位	-3272
橄欖	-3273
義人	-3274
而已	-3275
若何	-3276
諸子	-3277
遣我	-3278
饑饉	-3279
馬色	-3280
yɛe	-3281
▁lo	-3282
▁ɔp	-3283
▁約翰	-3284
之祭司	-3285
其所行	-3286
於其手	-3287
bire	-3288
sesa	-3289
▁oni	-3290
▁pra	-3291
korɔn	-3292
▁ahoɔ	-3293
▁amen	-3294
▁guan	-3295
▁osuo	-3296
▁tiro	-3297
▁ɔsan	-3298
▁願耶和華	-3299
於耶路撒冷	-3300
▁hanan	-3301
▁kwaeɛ	-3302
▁moayɛ	-3303
▁ntwam	-3304
▁nwera	-3305
▁wɔama	-3306
▁ahyira	-3307
▁atwene	-3308
▁denden	-3309
▁nuabaa	-3310
▁simeon	-3311
▁awerɛhow	-3312
▁nnwanten	-3313
▁subonhwa	-3314
▁asubɔnten	-3315
▁下	-3316
▁愚	-3317
▁聽	-3318
▁萬	-3319
▁重	-3320
不識	-3321
之主	-3322
之榮	-3323
之王	-3324
他人	-3325
其手	-3326
大聲	-3327
姊妹	-3328
導我	-3329
山地	-3330
愆尤	-3331
愛之	-3332
智者	-3333
罪人	-3334
被虜	-3335
▁有若	-3336
主耶穌	-3337
kari	-3338
sono	-3339
ɔden	-3340
▁mis	-3341
▁pia	-3342
▁srɛ	-3343
▁tem	-3344
▁wɔk	-3345
annaa	-3346
banin	-3347
▁adam	-3348
▁hiob	-3349
▁kata	-3350
▁nkaa	-3351
▁were	-3352
▁yoma	-3353
▁badwa	-3354
▁haman	-3355
▁mfaso	-3356
▁nkron	-3357
▁nturo	-3358
▁tadua	-3359
▁yosia	-3360
▁abodoo	-3361
▁asodie	-3362
▁ismael	-3363
▁nneyɛe	-3364
▁obisaa	-3365
▁kɔtenaa	-3366
▁mfuturo	-3367
▁awerɛhoɔ	-3368
▁babelhene	-3369
▁wɔakyerɛw	-3370
▁分	-3371
之下	-3372
之後	-3373
二百	-3374
可畏	-3375
待之	-3376
操作	-3377
故也	-3378
於海	-3379
晝夜	-3380
民曰	-3381
無有	-3382
父母	-3383
男女	-3384
矜憫	-3385
純全	-3386
諸族	-3387
遣使	-3388
駭異	-3389
bal	-3390
dok	-3391
mar	-3392
tɔɔ	-3393
▁以我	-3394
▁我子	-3395
▁我為	-3396
▁是以	-3397
▁與我	-3398
何耶大	-3399
實瑪利	-3400
dwen	-3401
sini	-3402
▁hui	-3403
▁pam	-3404
▁pɛe	-3405
▁mabɛ	-3406
▁nnkɔ	-3407
▁nyan	-3408
▁adihɔ	-3409
▁anwea	-3410
▁fapem	-3411
▁laban	-3412
▁sadok	-3413
▁woadi	-3414
▁wɔkum	-3415
▁bɛdane	-3416
▁ahodwiri	-3417
▁nnwinneɛ	-3418
▁以色列之上帝耶和華	-3419
rm	-3420
▁屬	-3421
▁延	-3422
▁次	-3423
▁經	-3424
之乎	-3425
之也	-3426
何時	-3427
及爾	-3428
城垣	-3429
外人	-3430
我王	-3431
拉巴	-3432
推羅	-3433
教誨	-3434
有之	-3435
火祭	-3436
羣羊	-3437
花果	-3438
賽亞	-3439
▁亞捫	-3440
▁亞蘭	-3441
▁以致	-3442
▁必不	-3443
▁有如	-3444
▁越至	-3445
亞摩利	-3446
亞述王	-3447
埃及人	-3448
tɔeɛ	-3449
▁apa	-3450
▁dam	-3451
▁tii	-3452
▁yuu	-3453
▁約拿單	-3454
emmaa	-3455
ftali	-3456
▁abra	-3457
▁ewie	-3458
▁nhwi	-3459
▁seru	-3460
▁wobu	-3461
▁wɔso	-3462
頌美耶和華	-3463
▁ahasa	-3464
▁apiti	-3465
▁atene	-3466
▁ester	-3467
▁mmere	-3468
▁wɔabɔ	-3469
▁ɔbɛdi	-3470
reneefo	-3471
▁ahiafo	-3472
▁asɛnnua	-3473
▁naftali	-3474
▁ananafoɔ	-3475
▁anisoade	-3476
▁nnipadɔm	-3477
▁atreneefo	-3478
▁供	-3479
▁古	-3480
▁奚	-3481
▁目	-3482
▁蒙	-3483
▁返	-3484
三人	-3485
之僕	-3486
二萬	-3487
伯蘭	-3488
其首	-3489
居之	-3490
愛者	-3491
所出	-3492
歌頌	-3493
歲之	-3494
祝嘏	-3495
綏安	-3496
bon	-3497
paa	-3498
rot	-3499
uni	-3500
▁ao	-3501
▁列邦	-3502
▁坐於	-3503
▁我豈	-3504
▁請爾	-3505
伯特利	-3506
於猶大	-3507
異邦人	-3508
perɛ	-3509
ɛfoɔ	-3510
▁sɔɔ	-3511
▁ɛto	-3512
lehem	-3513
▁kyee	-3514
▁meda	-3515
▁mɛka	-3516
▁ɔdan	-3517
▁ɔsɛe	-3518
wumfoɔ	-3519
▁menim	-3520
▁nhunu	-3521
▁wedeɛ	-3522
▁wodii	-3523
▁wɔabɛ	-3524
▁gyinaa	-3525
▁mmabaa	-3526
▁wɔrebɛ	-3527
▁wɔsɔre	-3528
▁yafunu	-3529
▁ahemfie	-3530
▁akyinnye	-3531
▁betlehem	-3532
▁火	-3533
之門	-3534
付於	-3535
伸手	-3536
其心	-3537
守之	-3538
平原	-3539
掣籤	-3540
撒拉	-3541
攜之	-3542
斯列	-3543
比亞	-3544
爾心	-3545
疫癘	-3546
細麵	-3547
者不	-3548
至此	-3549
錫嘏	-3550
non	-3551
sin	-3552
siw	-3553
▁中心	-3554
▁以斯	-3555
▁基列	-3556
▁斯土	-3557
▁然我	-3558
▁爾勿	-3559
▁爾為	-3560
▁脫於	-3561
但以理	-3562
利巴嫩	-3563
逾越節	-3564
hyee	-3565
soro	-3566
toma	-3567
▁awe	-3568
▁gil	-3569
▁yes	-3570
▁建營於	-3571
▁猶大人	-3572
亞爸拉罕	-3573
yɛfoɔ	-3574
▁koto	-3575
▁mekɔ	-3576
▁mpɛn	-3577
▁onua	-3578
▁sema	-3579
▁ɔtee	-3580
rannaa	-3581
▁atiri	-3582
▁kɔmaa	-3583
▁menam	-3584
▁ohoni	-3585
▁sidon	-3586
▁wotie	-3587
我上帝耶和華	-3588
▁akɔnnɔ	-3589
▁amalek	-3590
▁mefiri	-3591
▁wɔbɛfa	-3592
▁ɔbɔfoɔ	-3593
▁以色列之上帝	-3594
▁kɔkyeree	-3595
▁asɔfotadeɛ	-3596
▁mmɔborɔhunu	-3597
▁ntotorobɛnto	-3598
▁侍	-3599
▁曷	-3600
▁波	-3601
▁牛	-3602
▁相	-3603
▁稱	-3604
▁遍	-3605
一萬	-3606
之水	-3607
五千	-3608
其衣	-3609
四境	-3610
恩寵	-3611
有其	-3612
野獸	-3613
長子	-3614
bom	-3615
hon	-3616
kon	-3617
mat	-3618
▁其地	-3619
▁成為	-3620
▁我見	-3621
▁立於	-3622
上帝僕	-3623
基路伯	-3624
希伯崙	-3625
iani	-3626
pore	-3627
▁awɔ	-3628
▁hwa	-3629
▁nen	-3630
▁pea	-3631
▁rah	-3632
▁tɔɔ	-3633
▁yɛe	-3634
耶和華言	-3635
▁nkum	-3636
▁reka	-3637
▁ɛwoɔ	-3638
daadaa	-3639
▁amapa	-3640
▁anwan	-3641
▁ewiem	-3642
▁gibea	-3643
▁kronn	-3644
▁mpemn	-3645
▁rahel	-3646
▁wɔafa	-3647
▁ɔrebɛ	-3648
▁ahunta	-3649
▁atɔfoɔ	-3650
▁hyerɛn	-3651
▁ntwemu	-3652
▁ohiani	-3653
▁hyiadan	-3654
▁merehyɛ	-3655
▁moahunu	-3656
▁mpaperɛ	-3657
▁nhyehyɛ	-3658
▁nufosuo	-3659
▁sebulon	-3660
▁ɔkwasea	-3661
▁nkwagyeɛ	-3662
▁nnipakuw	-3663
▁小	-3664
▁抑	-3665
▁流	-3666
▁發	-3667
其後	-3668
其民	-3669
基利	-3670
己之	-3671
庶民	-3672
悔改	-3673
施恩	-3674
明哲	-3675
無疵	-3676
維生	-3677
至於	-3678
見我	-3679
han	-3680
▁四周	-3681
▁我曰	-3682
▁而爾	-3683
▁致爾	-3684
basa	-3685
▁ɔsɔ	-3686
▁以利沙	-3687
hwere	-3688
▁asen	-3689
▁atim	-3690
▁borɔ	-3691
▁memm	-3692
▁wann	-3693
▁yɛan	-3694
▁ɔboa	-3695
▁aburo	-3696
▁agyaa	-3697
▁hebri	-3698
▁mihuu	-3699
▁mpoma	-3700
▁pefee	-3701
▁ahanan	-3702
▁ahinta	-3703
▁fiefoɔ	-3704
▁hyehyɛ	-3705
▁mommfa	-3706
▁wɔhyɛɛ	-3707
▁ɔtwerɛ	-3708
於爾上帝耶和華	-3709
▁nkwasea	-3710
▁tentene	-3711
▁adwamammɔ	-3712
▁六	-3713
▁口	-3714
▁暗	-3715
七年	-3716
三年	-3717
人以	-3718
修葺	-3719
利恆	-3720
因其	-3721
建室	-3722
強暴	-3723
忿怒	-3724
比雅	-3725
犯罪	-3726
異蹟	-3727
示之	-3728
群眾	-3729
貧乏	-3730
頌讚	-3731
fan	-3732
gal	-3733
iiɛ	-3734
wui	-3735
▁亞述	-3736
▁付於	-3737
▁及爾	-3738
▁惡人	-3739
▁我未	-3740
▁我聞	-3741
▁斯人	-3742
▁既至	-3743
▁是時	-3744
▁爾與	-3745
告之曰	-3746
與其郊	-3747
謂我曰	-3748
beon	-3749
kita	-3750
tane	-3751
▁afɛ	-3752
▁ayu	-3753
▁han	-3754
▁ɛkɔ	-3755
▁蓋我儕	-3756
enkan	-3757
hwɛfo	-3758
somaa	-3759
▁abaa	-3760
▁mema	-3761
▁mfuo	-3762
▁mɛyi	-3763
▁nkɔn	-3764
▁nsan	-3765
▁nsie	-3766
▁ohuu	-3767
▁ɔnkɔ	-3768
▁以色列家	-3769
wammaa	-3770
▁aduru	-3771
▁akorɔ	-3772
▁wɔtoo	-3773
▁yudea	-3774
▁yɛren	-3775
▁ɔbɛba	-3776
▁asaria	-3777
▁betumi	-3778
▁ketewa	-3779
▁mmakan	-3780
▁ɔkorow	-3781
▁abosome	-3782
▁abotire	-3783
▁nhwiren	-3784
▁wɔantie	-3785
▁basabasa	-3786
巴比倫王尼布甲尼撒	-3787
hi	-3788
no	-3789
▁俄	-3790
▁倘	-3791
▁提	-3792
▁水	-3793
一千	-3794
亞希	-3795
人子	-3796
他連	-3797
以所	-3798
以金	-3799
其命	-3800
參孫	-3801
在我	-3802
天下	-3803
得其	-3804
成之	-3805
所賜	-3806
所造	-3807
於刃	-3808
河濱	-3809
甚多	-3810
示劍	-3811
示爾	-3812
而後	-3813
聖衣	-3814
舉手	-3815
蒙羞	-3816
西門	-3817
ere	-3818
kar	-3819
lam	-3820
see	-3821
ɛnt	-3822
▁乃以	-3823
▁其時	-3824
▁我民	-3825
▁明日	-3826
▁歷世	-3827
▁無有	-3828
▁迦得	-3829
他連得	-3830
omma	-3831
setɔ	-3832
utam	-3833
▁dwe	-3834
▁kyi	-3835
▁蓋上帝	-3836
▁bedi	-3837
▁bena	-3838
▁gide	-3839
▁mɛto	-3840
▁tiee	-3841
▁twee	-3842
▁yoas	-3843
▁ɛnni	-3844
寅畏耶和華	-3845
hohoro	-3846
unafoɔ	-3847
▁kwata	-3848
▁mekae	-3849
▁memma	-3850
▁natan	-3851
▁nsane	-3852
▁simei	-3853
▁wɔhwɛ	-3854
▁yisai	-3855
▁ahyɛde	-3856
▁mmɔden	-3857
▁mpomma	-3858
▁muntie	-3859
▁rekorɔ	-3860
▁wɔsane	-3861
▁ɔbisaa	-3862
▁ɔfirii	-3863
▁ɛkorɔn	-3864
▁amanneɛ	-3865
▁ankyerɛ	-3866
▁boasetɔ	-3867
▁montena	-3868
▁主耶和華言之矣	-3869
▁ahosɛpɛw	-3870
▁ahuhudeɛ	-3871
▁anibereɛ	-3872
▁kyekyeree	-3873
▁ntwamutam	-3874
▁反	-3875
▁哥	-3876
▁宰	-3877
▁底	-3878
▁投	-3879
▁更	-3880
▁治	-3881
▁設	-3882
▁身	-3883
▁顯	-3884
不以	-3885
之靈	-3886
之餅	-3887
予我	-3888
以上	-3889
傾跌	-3890
其僕	-3891
十四	-3892
善者	-3893
導爾	-3894
居所	-3895
布倫	-3896
憐恤	-3897
於野	-3898
法度	-3899
灌祭	-3900
約匱	-3901
結實	-3902
緘默	-3903
貧者	-3904
雅子	-3905
馨香	-3906
ɛtɛ	-3907
▁使者	-3908
▁及諸	-3909
▁希伯	-3910
▁我今	-3911
▁然則	-3912
▁見其	-3913
▁迦勒	-3914
弗他利	-3915
於列邦	-3916
蒙不潔	-3917
fire	-3918
reel	-3919
▁mah	-3920
▁tew	-3921
▁爾為我	-3922
▁akra	-3923
▁aser	-3924
▁bala	-3925
▁meba	-3926
▁pɛpɛ	-3927
▁ware	-3928
▁wɔbu	-3929
▁我誠告爾	-3930
至耶路撒冷	-3931
▁wokum	-3932
其上帝耶和華	-3933
▁abosom	-3934
▁ahɔhoɔ	-3935
▁akumaa	-3936
▁amonom	-3937
▁atwerɛ	-3938
▁hyiraa	-3939
▁mommra	-3940
▁rekasa	-3941
▁wonnim	-3942
▁kaesare	-3943
▁yesreel	-3944
▁agyapade	-3945
▁rehoboam	-3946
▁dwetɛbena	-3947
▁ahohommɔne	-3948
▁totorobɛnto	-3949
▁kyerɛkyerɛfo	-3950
▁l	-3951
▁仍	-3952
▁伏	-3953
之器	-3954
之心	-3955
亦不	-3956
以撒	-3957
君王	-3958
多瑪	-3959
守我	-3960
我乎	-3961
族之	-3962
月朔	-3963
永久	-3964
該撒	-3965
賓旅	-3966
pue	-3967
unt	-3968
▁乃由	-3969
▁俱為	-3970
▁其中	-3971
▁及凡	-3972
▁彼不	-3973
▁歷至	-3974
▁耶戶	-3975
▁起而	-3976
大馬色	-3977
押沙龍	-3978
於爾手	-3979
為上帝	-3980
lkia	-3981
yini	-3982
▁pɛɛ	-3983
▁ɛsɔ	-3984
我主耶穌	-3985
nyina	-3986
tania	-3987
teɛɛm	-3988
wonoo	-3989
yadeɛ	-3990
▁aane	-3991
▁ahas	-3992
▁boaa	-3993
▁fili	-3994
▁funu	-3995
▁fɛfɛ	-3996
▁mabɔ	-3997
▁srɛɛ	-3998
▁wiee	-3999
▁wira	-4000
boaboa	-4001
hoahoa	-4002
kunkum	-4003
witwaa	-4004
▁ahotɔ	-4005
▁sukɔm	-4006
▁ɔgyaa	-4007
▁adekye	-4008
▁adwane	-4009
▁akodie	-4010
▁merekɔ	-4011
▁nkokoɔ	-4012
▁nkyene	-4013
▁wobɛyɛ	-4014
耶和華所諭摩西	-4015
▁boaboaa	-4016
▁pɛpɛɛpɛ	-4017
▁wɔfirii	-4018
▁ɔdebɔne	-4019
▁anidasoɔ	-4020
▁ɔbabarima	-4021
▁ɔtwerɛfoɔ	-4022
▁kyerɛkyerɛ	-4023
▁yerusalemfoɔ	-4024
▁召	-4025
▁屆	-4026
▁拯	-4027
▁深	-4028
▁給	-4029
▁諭	-4030
▁陳	-4031
丁男	-4032
俯伏	-4033
崇事	-4034
所欲	-4035
拿達	-4036
生物	-4037
福祉	-4038
罪戾	-4039
置於	-4040
義者	-4041
而生	-4042
而返	-4043
荊棘	-4044
號咷	-4045
行淫	-4046
視之	-4047
賜爾	-4048
逐之	-4049
食其	-4050
dwe	-4051
him	-4052
▁人若	-4053
▁其次	-4054
▁昔我	-4055
▁是為	-4056
▁無不	-4057
▁迄於	-4058
基督之	-4059
於我儕	-4060
為祭司	-4061
牡綿羊	-4062
buru	-4063
dɔma	-4064
kwaa	-4065
▁buu	-4066
▁ger	-4067
▁mpɛ	-4068
▁sel	-4069
▁ɔpe	-4070
▁大衛曰	-4071
▁耶利米	-4072
sakra	-4073
wehwɛ	-4074
▁bata	-4075
▁mera	-4076
▁mesu	-4077
▁mmma	-4078
▁woso	-4079
在耶路撒冷	-4080
mamfoɔ	-4081
rekyie	-4082
▁aforo	-4083
▁atwam	-4084
▁dunan	-4085
▁kataa	-4086
▁nnepa	-4087
▁pasaa	-4088
▁sodom	-4089
▁wɔakɔ	-4090
▁奉於耶和華	-4091
tenenee	-4092
▁abrabɔ	-4093
▁adamfo	-4094
▁amaneɛ	-4095
▁bɛsɔre	-4096
▁isakar	-4097
▁kɔnnua	-4098
▁mmorɔno	-4099
▁ntotɔeɛ	-4100
▁woahunu	-4101
▁aberante	-4102
▁akyidifo	-4103
▁misraimhene	-4104
▁世	-4105
▁哀	-4106
▁善	-4107
▁奪	-4108
▁攻	-4109
▁莫	-4110
▁觀	-4111
▁追	-4112
▁革	-4113
之諸	-4114
其身	-4115
剛愎	-4116
和平	-4117
奉事	-4118
女歟	-4119
富有	-4120
尼亞	-4121
慰藉	-4122
我而	-4123
欣喜	-4124
▁li	-4125
▁俱載	-4126
▁凡有	-4127
▁則可	-4128
▁我既	-4129
▁爾往	-4130
基比亞	-4131
大衛之	-4132
我上帝	-4133
撒母耳	-4134
者之手	-4135
耶利哥	-4136
gyae	-4137
huro	-4138
huru	-4139
▁gat	-4140
▁nke	-4141
▁ɔyi	-4142
慈惠永存	-4143
huhuo	-4144
▁huru	-4145
▁mɛbɔ	-4146
▁nnam	-4147
▁roma	-4148
▁yebu	-4149
▁yɛte	-4150
▁ɔgye	-4151
▁asane	-4152
▁ayowa	-4153
▁dweti	-4154
▁fidie	-4155
▁hadad	-4156
▁kiria	-4157
▁menka	-4158
▁monto	-4159
▁munni	-4160
▁nkane	-4161
▁tamfo	-4162
▁wɔkae	-4163
▁yenim	-4164
sotefoɔ	-4165
▁baanan	-4166
▁mfasoɔ	-4167
▁mmuada	-4168
▁mmɔfra	-4169
▁monkae	-4170
▁munnye	-4171
▁yakobo	-4172
▁ɔkyerɛ	-4173
▁bɛhyiaa	-4174
▁amumɔyɛfo	-4175
▁dwetikɛseɛ	-4176
or	-4177
▁內	-4178
▁語	-4179
▁除	-4180
之業	-4181
事蹟	-4182
互相	-4183
五肘	-4184
他瑪	-4185
以掃	-4186
千人	-4187
哭泣	-4188
垂聽	-4189
子比	-4190
宮室	-4191
巴蘭	-4192
弗替	-4193
攻我	-4194
有何	-4195
歡呼	-4196
磐石	-4197
而上	-4198
自由	-4199
言者	-4200
謂其	-4201
變為	-4202
邑中	-4203
驚惶	-4204
fuo	-4205
suu	-4206
tra	-4207
▁以上	-4208
▁以此	-4209
▁利未	-4210
▁則當	-4211
▁勿懼	-4212
▁原文	-4213
▁我於	-4214
▁我與	-4215
▁故當	-4216
▁此人	-4217
列王紀	-4218
及其郊	-4219
大衛曰	-4220
於其上	-4221
無花果	-4222
獻燔祭	-4223
pamo	-4224
▁fuu	-4225
▁pɛn	-4226
ammaa	-4227
kɔkɔɔ	-4228
sosɛm	-4229
waman	-4230
wifoɔ	-4231
ɔnefo	-4232
▁dinn	-4233
▁kyɛw	-4234
▁sina	-4235
▁aniwu	-4236
▁apete	-4237
▁manya	-4238
▁minni	-4239
▁pinii	-4240
▁wɔabu	-4241
▁ɔsoma	-4242
reneeni	-4243
▁adesoa	-4244
▁antumi	-4245
▁benaia	-4246
▁bɛhunu	-4247
▁krataa	-4248
▁mmepɔw	-4249
▁nnedua	-4250
▁nsubɔn	-4251
▁ntaaboɔ	-4252
▁萬軍之耶和華曰	-4253
▁apɔnkɔsotefoɔ	-4254
▁五	-4255
▁戶	-4256
之長	-4257
以謝	-4258
吞噬	-4259
問爾	-4260
察之	-4261
尋求	-4262
布斯	-4263
建營	-4264
拿雅	-4265
有福	-4266
正直	-4267
歸之	-4268
為此	-4269
焚香	-4270
父家	-4271
目擊	-4272
築壇	-4273
米甸	-4274
若此	-4275
薩迦	-4276
藐視	-4277
門之	-4278
震動	-4279
bii	-4280
ire	-4281
pia	-4282
tar	-4283
▁pɔ	-4284
▁今爾	-4285
▁如其	-4286
▁我自	-4287
▁此皆	-4288
▁若我	-4289
大衛城	-4290
於我手	-4291
約拿單	-4292
耶斯列	-4293
aama	-4294
dada	-4295
gyan	-4296
kata	-4297
pasa	-4298
▁bie	-4299
▁hoa	-4300
▁約沙法	-4301
▁agua	-4302
▁butu	-4303
▁madi	-4304
▁mebɔ	-4305
▁mpen	-4306
▁oyii	-4307
▁pasa	-4308
▁rebe	-4309
tiatia	-4310
▁abisa	-4311
▁akata	-4312
▁ayare	-4313
▁balak	-4314
▁kabii	-4315
▁mpena	-4316
▁nkasa	-4317
▁nnwon	-4318
▁nwunu	-4319
▁owura	-4320
▁woyɛɛ	-4321
▁wɔyii	-4322
▁yehoa	-4323
▁yɛayɛ	-4324
▁ɛreba	-4325
▁ɛsono	-4326
▁akomam	-4327
▁gilgal	-4328
▁mehunu	-4329
▁momono	-4330
▁mubehu	-4331
▁nkurow	-4332
▁wɔkura	-4333
▁yɛbɛyɛ	-4334
wamamfoɔ	-4335
▁adwaman	-4336
▁afieboa	-4337
▁nkyekyɛ	-4338
▁wɔduruu	-4339
▁aberanteɛ	-4340
▁mfitiaseɛ	-4341
▁anwanwadeɛ	-4342
▁anantwinini	-4343
▁南	-4344
▁東	-4345
▁死	-4346
▁田	-4347
不信	-4348
付之	-4349
偕行	-4350
哈難	-4351
奇事	-4352
所獻	-4353
所產	-4354
棄我	-4355
歡欣	-4356
聞其	-4357
號呼	-4358
諸國	-4359
des	-4360
sur	-4361
▁不知	-4362
▁其餘	-4363
▁民眾	-4364
▁爰及	-4365
▁爾可	-4366
▁爾豈	-4367
▁而彼	-4368
▁而我	-4369
▁蓋此	-4370
西底家	-4371
aseɛ	-4372
onoo	-4373
sɛee	-4374
▁dwo	-4375
▁efa	-4376
▁一歲之	-4377
▁上帝之	-4378
▁我為爾	-4379
frama	-4380
susuw	-4381
yinam	-4382
▁adwe	-4383
▁hasa	-4384
▁moma	-4385
▁mpam	-4386
▁nnni	-4387
▁ɔkɔm	-4388
▁ɛnte	-4389
▁以色列眾	-4390
buruwa	-4391
▁ahyɛn	-4392
▁begye	-4393
▁dubaa	-4394
▁hyɛeɛ	-4395
▁mispa	-4396
▁remma	-4397
▁sinai	-4398
▁wanya	-4399
▁wohuu	-4400
▁yɛnyɛ	-4401
▁ɔpapo	-4402
▁ɛbere	-4403
▁amaama	-4404
▁amasia	-4405
▁gibeon	-4406
▁mmanin	-4407
▁nantwi	-4408
▁nkuran	-4409
▁wohunu	-4410
▁wɔasɛe	-4411
▁wɔfrɛɛ	-4412
▁wɔtumi	-4413
▁pasapasa	-4414
▁safohene	-4415
以色列之上帝耶和華	-4416
耶和華所諭摩西之命	-4417
▁ateasefoɔ	-4418
▁ɔtreneeni	-4419
▁gyinagyina	-4420
mɔ	-4421
▁乘	-4422
▁備	-4423
▁啟	-4424
▁寧	-4425
▁就	-4426
▁山	-4427
▁播	-4428
一切	-4429
之故	-4430
五百	-4431
以我	-4432
作為	-4433
偕眠	-4434
其國	-4435
其邑	-4436
出而	-4437
吉甲	-4438
執之	-4439
堅城	-4440
室之	-4441
得生	-4442
我心	-4443
所遺	-4444
於敵	-4445
此人	-4446
水之	-4447
眷顧	-4448
第宅	-4449
行惡	-4450
見殺	-4451
謗讟	-4452
赫人	-4453
雕像	-4454
離之	-4455
離我	-4456
ros	-4457
set	-4458
▁og	-4459
▁居於	-4460
▁我目	-4461
▁斯民	-4462
▁昔爾	-4463
▁爾僕	-4464
▁牧伯	-4465
其列祖	-4466
十二人	-4467
duan	-4468
rani	-4469
teaa	-4470
tiee	-4471
▁bue	-4472
▁koo	-4473
▁per	-4474
▁ram	-4475
▁toa	-4476
▁toɔ	-4477
▁ɔfo	-4478
▁押沙龍	-4479
其餘事蹟	-4480
可惡之事	-4481
kyera	-4482
nonoo	-4483
▁afrɛ	-4484
▁beer	-4485
▁mumm	-4486
▁ntia	-4487
▁wabɔ	-4488
▁wɔyi	-4489
▁以色列之	-4490
耶和華之言	-4491
▁afunu	-4492
▁apɛde	-4493
▁binom	-4494
▁dunum	-4495
▁hamat	-4496
▁kosii	-4497
▁kɔkaa	-4498
▁menni	-4499
▁ntade	-4500
▁twerɛ	-4501
▁wɔate	-4502
▁yɛmfa	-4503
▁gideon	-4504
▁mfomso	-4505
▁munnim	-4506
▁wɔtena	-4507
▁ahonhom	-4508
▁ayitoma	-4509
▁bapɔmma	-4510
▁kɔhyiaa	-4511
▁mekyerɛ	-4512
▁pradada	-4513
▁wɔtenaa	-4514
▁agyaadwo	-4515
▁asɛmmɔne	-4516
▁owuyadeɛ	-4517
▁ahintasɛm	-4518
▁ahonyadeɛ	-4519
ge	-4520
▁代	-4521
▁別	-4522
▁戰	-4523
▁援	-4524
▁滅	-4525
▁祈	-4526
▁素	-4527
亞他	-4528
全家	-4529
境內	-4530
子示	-4531
從我	-4532
所見	-4533
所諭	-4534
拉利	-4535
是也	-4536
永生	-4537
爾父	-4538
眾曰	-4539
繕寫	-4540
者歟	-4541
腓立	-4542
血氣	-4543
見爾	-4544
飲食	-4545
rib	-4546
soɛ	-4547
sɔɔ	-4548
▁人之	-4549
▁其母	-4550
▁區別	-4551
▁攜至	-4552
▁無一	-4553
▁爾宜	-4554
▁謳歌	-4555
▁遂往	-4556
以利沙	-4557
所得之	-4558
米斯巴	-4559
門徒曰	-4560
nyae	-4561
pere	-4562
pira	-4563
rɔni	-4564
wura	-4565
▁fom	-4566
▁ohu	-4567
▁paa	-4568
▁wɔs	-4569
▁彼拉多	-4570
▁猶太人	-4571
以利亞撒	-4572
inwii	-4573
pɔnna	-4574
rɔkye	-4575
waree	-4576
▁ammɛ	-4577
▁redi	-4578
▁akyɛm	-4579
▁dɔfoɔ	-4580
▁hyiaa	-4581
▁kɔfaa	-4582
▁monyi	-4583
▁suban	-4584
▁wamma	-4585
▁wogye	-4586
▁wɔmmɔ	-4587
▁wɔnte	-4588
▁yɛnam	-4589
▁主耶和華云	-4590
▁adɔɔso	-4591
▁ahoɔfɛ	-4592
▁dwiriw	-4593
▁filipo	-4594
▁metumi	-4595
▁mpanin	-4596
▁nkamfo	-4597
▁nkanea	-4598
▁wɔbɛdi	-4599
▁wɔnnya	-4600
▁adehunu	-4601
▁monsane	-4602
▁wogyina	-4603
▁asorɔkye	-4604
▁nnwankuo	-4605
▁oguammaa	-4606
▁atemmufoɔ	-4607
▁onyansafoɔ	-4608
▁事	-4609
▁信	-4610
▁引	-4611
▁果	-4612
▁脫	-4613
▁誠	-4614
▁速	-4615
▁門	-4616
之妻	-4617
之至	-4618
二年	-4619
其道	-4620
前之	-4621
大地	-4622
審判	-4623
巴珊	-4624
恐懼	-4625
撒勒	-4626
會中	-4627
為證	-4628
無辜	-4629
王宮	-4630
者亦	-4631
製之	-4632
言曰	-4633
鄰里	-4634
雅敬	-4635
kam	-4636
kun	-4637
leb	-4638
man	-4639
rak	-4640
ɔho	-4641
▁ai	-4642
▁且以	-4643
▁以及	-4644
▁其名	-4645
▁大聲	-4646
▁對曰	-4647
▁延及	-4648
▁必得	-4649
▁我又	-4650
▁我父	-4651
▁未嘗	-4652
▁試觀	-4653
亞蘭人	-4654
千夫長	-4655
問之曰	-4656
會幕門	-4657
doma	-4658
fowa	-4659
koaa	-4660
sian	-4661
▁lot	-4662
▁nha	-4663
▁soa	-4664
▁wim	-4665
▁我必使	-4666
以色列中	-4667
列祖偕眠	-4668
為以色列	-4669
為耶和華	-4670
hunta	-4671
mmɔne	-4672
susuu	-4673
unafo	-4674
▁atwe	-4675
▁hare	-4676
▁maba	-4677
▁medɔ	-4678
▁rama	-4679
muɔden	-4680
▁aseda	-4681
▁ayeyɛ	-4682
▁bɛhwɛ	-4683
▁bɛkyɛ	-4684
▁kaleb	-4685
▁ogyee	-4686
▁renyɛ	-4687
▁sihon	-4688
▁ɔforo	-4689
hwehwɛɛ	-4690
▁agyata	-4691
▁nsɛsoɔ	-4692
▁semaia	-4693
▁wɔnnim	-4694
▁ɔdanee	-4695
▁ahanson	-4696
▁gyegyee	-4697
▁nkrante	-4698
▁nnuhwam	-4699
▁obetumi	-4700
▁在耶路撒冷為王	-4701
▁hwanhwam	-4702
▁wɔkyeree	-4703
▁mmɔborɔni	-4704
▁kronkronni	-4705
▁意	-4706
二子	-4707
人曰	-4708
受苦	-4709
哀哭	-4710
啟示	-4711
四百	-4712
因爾	-4713
實本	-4714
循其	-4715
撒督	-4716
於斯	-4717
油之	-4718
無知	-4719
王西	-4720
盈以	-4721
示羅	-4722
窘逐	-4723
苗裔	-4724
萬有	-4725
行者	-4726
觀之	-4727
赦宥	-4728
迦得	-4729
迦特	-4730
遂往	-4731
遇之	-4732
邪惡	-4733
間之	-4734
飛鳥	-4735
▁不然	-4736
▁凡此	-4737
▁必有	-4738
▁惡者	-4739
▁當時	-4740
▁葬於	-4741
▁豈不	-4742
為燔祭	-4743
迦南人	-4744
dani	-4745
pata	-4746
torɔ	-4747
yiri	-4748
▁asɔ	-4749
▁lea	-4750
▁nhu	-4751
▁tar	-4752
典章律例	-4753
bobɔɔ	-4754
panin	-4755
saret	-4756
▁asau	-4757
▁bɛyi	-4758
▁deɛn	-4759
▁etio	-4760
▁homa	-4761
▁karm	-4762
▁mafa	-4763
▁mmfa	-4764
▁mmɔn	-4765
▁mpra	-4766
▁nnyɛ	-4767
▁sɛeɛ	-4768
▁wohu	-4769
▁ɛmaa	-4770
▁惟耶和華	-4771
▁我上帝歟	-4772
▁ayera	-4773
▁benya	-4774
▁nohoa	-4775
▁obedi	-4776
▁renka	-4777
▁woduu	-4778
▁wunim	-4779
▁wɔsii	-4780
▁wɔtuu	-4781
▁ɔgyee	-4782
▁耶穌語之曰	-4783
▁ahasia	-4784
▁baason	-4785
▁kiriat	-4786
▁mekasa	-4787
▁nkasɛɛ	-4788
▁samson	-4789
▁tumfoɔ	-4790
▁wɔagye	-4791
▁wɔamfa	-4792
▁yudani	-4793
▁asomfoɔ	-4794
▁wobisaa	-4795
▁ɔdasani	-4796
▁aprannaa	-4797
▁asɔrefie	-4798
▁monnsuro	-4799
▁wɔantumi	-4800
▁yehoiada	-4801
▁berɛsosɛm	-4802
▁sikakɔkɔɔ	-4803
▁siriahene	-4804
▁yehoiakim	-4805
▁ntweneduro	-4806
fɔ	-4807
▁否	-4808
▁少	-4809
▁擲	-4810
▁答	-4811
▁造	-4812
之四	-4813
之外	-4814
之死	-4815
亨通	-4816
俞允	-4817
其生	-4818
受膏	-4819
同宗	-4820
咸集	-4821
哈拿	-4822
國之	-4823
居處	-4824
成聖	-4825
我僕	-4826
我子	-4827
戰鬥	-4828
所定	-4829
攻爾	-4830
救者	-4831
於田	-4832
未至	-4833
枲布	-4834
此言	-4835
死之	-4836
殺戮	-4837
羅得	-4838
自謂	-4839
萬民	-4840
虛空	-4841
西乃	-4842
西拉	-4843
許之	-4844
諸長	-4845
emu	-4846
yaw	-4847
▁何為	-4848
▁彼曰	-4849
▁愈於	-4850
▁會眾	-4851
▁此後	-4852
▁而得	-4853
▁豈非	-4854
▁迦南	-4855
▁願其	-4856
其所有	-4857
四十年	-4858
生之子	-4859
naba	-4860
wisi	-4861
▁ita	-4862
▁kun	-4863
▁ɛsi	-4864
▁羅波安	-4865
▁耶穌曰	-4866
上帝之子	-4867
耶和華名	-4868
耶羅波安	-4869
ɛntɛn	-4870
▁abom	-4871
▁bɛfa	-4872
▁bɛwu	-4873
▁hwɛe	-4874
▁masi	-4875
▁nhia	-4876
▁nsom	-4877
▁omun	-4878
▁seir	-4879
▁suko	-4880
▁toaa	-4881
▁wodɔ	-4882
▁wɔwo	-4883
▁yebe	-4884
以色列族云	-4885
▁adoni	-4886
▁bobɔɔ	-4887
▁nhini	-4888
▁sɔfoɔ	-4889
▁woyii	-4890
▁ɔkumm	-4891
▁abotan	-4892
▁ahobrɛ	-4893
▁aniwuo	-4894
▁asɛnka	-4895
▁merari	-4896
▁mobɛyɛ	-4897
▁monnni	-4898
▁wofiri	-4899
▁wɔbɛma	-4900
▁ɔpɔnkɔ	-4901
▁abɔnefo	-4902
▁ahennwa	-4903
▁ahyehyɛ	-4904
▁asoɔden	-4905
▁asuogya	-4906
▁ayeforo	-4907
▁barnaba	-4908
▁fononoo	-4909
▁moantie	-4910
▁wɔbɛtwa	-4911
▁ɔbɛtena	-4912
▁atenenee	-4913
▁kaneadua	-4914
▁mmoadoma	-4915
▁monkamfo	-4916
▁aduɔwɔtwe	-4917
▁nyansafoɔ	-4918
▁omununkum	-4919
▁ɔsafohene	-4920
▁afɔrebɔdeɛ	-4921
▁俟	-4922
▁傳	-4923
▁列	-4924
▁庶	-4925
▁拔	-4926
▁況	-4927
▁踐	-4928
之前	-4929
之路	-4930
亡於	-4931
依其	-4932
凡事	-4933
同在	-4934
安居	-4935
府庫	-4936
心之	-4937
悅之	-4938
於世	-4939
既畢	-4940
是巴	-4941
是日	-4942
歸我	-4943
殺我	-4944
無酵	-4945
燈臺	-4946
爾祖	-4947
牧者	-4948
瑪雅	-4949
田畝	-4950
畏懼	-4951
異族	-4952
眾子	-4953
羣畜	-4954
而起	-4955
而食	-4956
荒涼	-4957
諸敵	-4958
證者	-4959
識之	-4960
離爾	-4961
bes	-4962
haw	-4963
▁亞拿	-4964
▁亦將	-4965
▁以待	-4966
▁其所	-4967
▁加以	-4968
▁取其	-4969
▁屆期	-4970
▁彼亦	-4971
▁或告	-4972
▁維時	-4973
▁義者	-4974
▁萬軍	-4975
▁非由	-4976
子以利	-4977
諭我曰	-4978
duon	-4979
muka	-4980
teɛm	-4981
▁gui	-4982
▁hin	-4983
▁mfu	-4984
▁taa	-4985
▁ɔwo	-4986
▁非利士	-4987
於上帝前	-4988
kyini	-4989
mfiri	-4990
tufoɔ	-4991
▁akua	-4992
▁ehia	-4993
▁mihu	-4994
▁muhu	-4995
▁ntie	-4996
▁obed	-4997
▁rebɔ	-4998
▁seme	-4999
▁teeɛ	-5000
▁tire	-5001
▁uria	-5002
▁yera	-5003
▁ɔbrɛ	-5004
▁為贖罪祭	-5005
seafoɔ	-5006
▁abant	-5007
▁akosi	-5008
▁akwaa	-5009
▁haran	-5010
▁kumaa	-5011
▁mehyɛ	-5012
▁mpapo	-5013
▁mufoɔ	-5014
▁sɛsɛɛ	-5015
▁wahyɛ	-5016
▁womaa	-5017
耶路撒冷居民	-5018
yansafo	-5019
▁bibire	-5020
▁kokoam	-5021
▁mpaboa	-5022
▁mpataa	-5023
▁wɔgyaa	-5024
▁ɔsomfo	-5025
▁dubaako	-5026
▁koogyan	-5027
▁wɔntumi	-5028
▁ɔhemmaa	-5029
▁atorosɛm	-5030
▁borɔdɔma	-5031
▁mmabanin	-5032
▁ntotosoɔ	-5033
▁abantenten	-5034
▁dwanekɔbea	-5035
▁gyegyeegye	-5036
▁honhommɔne	-5037
▁nkwaseafoɔ	-5038
▁充	-5039
▁實	-5040
▁繫	-5041
▁附	-5042
以己	-5043
出其	-5044
哈曼	-5045
土壤	-5046
堅立	-5047
大能	-5048
導之	-5049
就我	-5050
懷妊	-5051
救之	-5052
步履	-5053
歸爾	-5054
比拉	-5055
為一	-5056
爾兮	-5057
爾曰	-5058
百加	-5059
盡滅	-5060
穹蒼	-5061
繁衍	-5062
而下	-5063
而呼	-5064
臥於	-5065
虛偽	-5066
衛長	-5067
諮諏	-5068
譴責	-5069
遠方	-5070
魔鬼	-5071
iaa	-5072
reb	-5073
▁不以	-5074
▁人必	-5075
▁依其	-5076
▁免其	-5077
▁參孫	-5078
▁比利	-5079
▁眾民	-5080
亦如是	-5081
所立之	-5082
約沙法	-5083
諸先知	-5084
hwee	-5085
nwen	-5086
roni	-5087
seni	-5088
terɛ	-5089
yane	-5090
▁fae	-5091
▁ɔho	-5092
▁ɔye	-5093
▁基督之	-5094
純全無疵	-5095
迦勒底人	-5096
duonu	-5097
etewa	-5098
kɔfoɔ	-5099
ranom	-5100
▁haga	-5101
▁hyee	-5102
▁kɔma	-5103
▁mahu	-5104
▁make	-5105
▁mifi	-5106
▁mokɔ	-5107
▁mɛkɔ	-5108
▁ntew	-5109
▁nwan	-5110
▁silo	-5111
▁yɛmm	-5112
▁ɔnim	-5113
慈惠永存兮	-5114
▁abebu	-5115
▁abubu	-5116
▁abɔde	-5117
▁agyim	-5118
▁ahuru	-5119
▁hwene	-5120
▁hɔhoɔ	-5121
▁mefrɛ	-5122
▁mɛgye	-5123
▁nante	-5124
▁ɔsuro	-5125
▁ahodeɛ	-5126
▁daakye	-5127
▁hesbon	-5128
▁hwɛfoɔ	-5129
▁wɔagya	-5130
▁ɔtemmu	-5131
▁aponnwa	-5132
▁monsɔre	-5133
▁nasaret	-5134
▁nsateaa	-5135
▁nsusuiɛ	-5136
▁wɔannya	-5137
▁mfitiase	-5138
▁abosonhuhuo	-5139
▁ɔdebɔneyɛfo	-5140
he	-5141
▁前	-5142
▁司	-5143
▁坐	-5144
▁對	-5145
▁常	-5146
▁慎	-5147
▁指	-5148
▁激	-5149
▁盛	-5150
▁靡	-5151
之區	-5152
之半	-5153
以火	-5154
六百	-5155
北方	-5156
在其	-5157
地上	-5158
基遍	-5159
已死	-5160
復仇	-5161
悲哀	-5162
惡之	-5163
感謝	-5164
所未	-5165
救援	-5166
服事	-5167
權衡	-5168
滅亡	-5169
為人	-5170
烈怒	-5171
爾乎	-5172
獲勝	-5173
翌日	-5174
而有	-5175
而見	-5176
色之	-5177
西珥	-5178
許願	-5179
足下	-5180
遭難	-5181
遵行	-5182
鞏固	-5183
顯見	-5184
poo	-5185
rio	-5186
ɔbɔ	-5187
▁fe	-5188
▁以至	-5189
▁其數	-5190
▁則爾	-5191
▁又以	-5192
▁如人	-5193
▁孰能	-5194
▁彼以	-5195
▁於其	-5196
▁於爾	-5197
▁是乃	-5198
▁爾心	-5199
▁爾言	-5200
▁請以	-5201
▁錫嘏	-5202
上帝前	-5203
上帝國	-5204
以賽亞	-5205
伊法十	-5206
牡山羊	-5207
猶大之	-5208
耶穌曰	-5209
bura	-5210
home	-5211
nane	-5212
paee	-5213
rɛma	-5214
turo	-5215
▁nse	-5216
▁obo	-5217
▁告之曰	-5218
▁我語爾	-5219
亞比米勒	-5220
至巴比倫	-5221
antam	-5222
dalia	-5223
wenee	-5224
▁apaa	-5225
▁behu	-5226
▁kyia	-5227
▁miam	-5228
▁sere	-5229
▁sɛee	-5230
▁wabɛ	-5231
▁wobɔ	-5232
▁ɔmmɛ	-5233
▁與其鄉里	-5234
以色列會眾	-5235
rankaa	-5236
ummɔbɔ	-5237
▁afɛfɛ	-5238
▁ahopo	-5239
▁ahyeɛ	-5240
▁asera	-5241
▁bɛgye	-5242
▁kɔbɔɔ	-5243
▁tamar	-5244
▁wisie	-5245
▁wɔboa	-5246
▁ɔbɛkɔ	-5247
▁ɔreka	-5248
▁abɔsoɔ	-5249
▁atokoɔ	-5250
▁ayeyie	-5251
▁woahyɛ	-5252
▁wosuro	-5253
▁ɔgyina	-5254
yinsɛnee	-5255
▁ankɔbea	-5256
▁hyehyɛɛ	-5257
▁yehoram	-5258
▁ahummɔbɔ	-5259
▁atukɔfoɔ	-5260
▁guankɔbea	-5261
▁abɔnefosɛm	-5262
▁nnwontofoɔ	-5263
▁anisoadehunu	-5264
▁再	-5265
▁垂	-5266
▁散	-5267
▁留	-5268
一肘	-5269
不已	-5270
之多	-5271
之期	-5272
之衣	-5273
之金	-5274
人乎	-5275
供役	-5276
助我	-5277
勒家	-5278
受浸	-5279
哈達	-5280
報之	-5281
孑遺	-5282
安然	-5283
寶石	-5284
待我	-5285
必有	-5286
所作	-5287
於亞	-5288
於火	-5289
時也	-5290
淪亡	-5291
爾民	-5292
發誓	-5293
瞽者	-5294
知也	-5295
禾場	-5296
翦滅	-5297
而居	-5298
聖民	-5299
行鞫	-5300
託庇	-5301
記憶	-5302
詭譎	-5303
贖之	-5304
飲之	-5305
ham	-5306
hwi	-5307
nan	-5308
tow	-5309
▁pu	-5310
▁以掃	-5311
▁則為	-5312
▁哥轄	-5313
▁在其	-5314
▁崇拜	-5315
▁我何	-5316
▁我知	-5317
▁為己	-5318
▁爾欲	-5319
▁爾見	-5320
▁由此	-5321
▁皆為	-5322
▁迨夕	-5323
二十歲	-5324
以斯帖	-5325
兄弟乎	-5326
嫩之子	-5327
我所命	-5328
有其時	-5329
為我民	-5330
百二十	-5331
約阿施	-5332
而殺之	-5333
butu	-5334
ifoɔ	-5335
▁ahe	-5336
▁dɔn	-5337
▁ela	-5338
▁kis	-5339
▁nun	-5340
▁yaw	-5341
▁我將以	-5342
▁我與爾	-5343
猶大諸邑	-5344
duane	-5345
dwira	-5346
▁didi	-5347
▁nsen	-5348
▁ntaa	-5349
▁nyam	-5350
▁nyin	-5351
▁popo	-5352
▁sesa	-5353
▁tene	-5354
▁ɔnom	-5355
遵耶和華命	-5356
trenee	-5357
wisiaa	-5358
yimiiɛ	-5359
▁adɔfo	-5360
▁ayeyi	-5361
▁kasae	-5362
▁kohat	-5363
▁maaka	-5364
▁mmobɔ	-5365
▁mmɔho	-5366
▁wagye	-5367
▁wonam	-5368
▁wɔhye	-5369
▁yefta	-5370
▁ɔnyaa	-5371
▁獻於耶和華	-5372
▁adwini	-5373
▁kɔduru	-5374
▁mereba	-5375
▁mmofra	-5376
▁persia	-5377
▁wonnye	-5378
▁wɔhunu	-5379
▁ɔbɛnya	-5380
▁aguaman	-5381
▁ahwehwɛ	-5382
▁gedalia	-5383
▁meremma	-5384
▁ninkunu	-5385
▁nkɔnsɔn	-5386
▁yohanan	-5387
▁ateasefo	-5388
▁bobeturo	-5389
▁mekyerɛɛ	-5390
▁nkyimiiɛ	-5391
▁nkyekyɛmu	-5392
▁tweneduro	-5393
▁僅	-5394
▁國	-5395
▁容	-5396
▁張	-5397
▁率	-5398
▁著	-5399
▁詰	-5400
▁達	-5401
▁遠	-5402
一日	-5403
之火	-5404
之石	-5405
低斯	-5406
何如	-5407
侮慢	-5408
其數	-5409
同居	-5410
器皿	-5411
巴拉	-5412
希律	-5413
師乎	-5414
悅納	-5415
應而	-5416
拉結	-5417
掩面	-5418
於上	-5419
晦冥	-5420
木偶	-5421
椶樹	-5422
歸其	-5423
毀之	-5424
為義	-5425
爾中	-5426
痛苦	-5427
祭壇	-5428
羔羊	-5429
者有	-5430
而外	-5431
聖地	-5432
聽其	-5433
臨之	-5434
臨陳	-5435
迎之	-5436
順服	-5437
麰麥	-5438
hin	-5439
poɔ	-5440
rea	-5441
rum	-5442
▁七日	-5443
▁全能	-5444
▁則不	-5445
▁我僕	-5446
▁焚香	-5447
▁爾在	-5448
▁爾父	-5449
▁約伯	-5450
▁義人	-5451
亞瑪力	-5452
別是巴	-5453
基大利	-5454
所多瑪	-5455
於基督	-5456
未受割	-5457
約西亞	-5458
耶穌之	-5459
anum	-5460
hini	-5461
huam	-5462
hwan	-5463
kyɛɛ	-5464
nuam	-5465
tuaa	-5466
umfo	-5467
▁bea	-5468
▁due	-5469
▁esu	-5470
▁mar	-5471
▁wom	-5472
▁ɛbɔ	-5473
▁我必以	-5474
▁牡山羊	-5475
▁迨夕乃	-5476
sunsu	-5477
trɛtɛ	-5478
▁afra	-5479
▁akas	-5480
▁bobɔ	-5481
▁bɛgu	-5482
▁bɛte	-5483
▁kyin	-5484
▁mudi	-5485
▁neba	-5486
▁otwa	-5487
▁yɛpɛ	-5488
▁ɔtuu	-5489
▁ɛkaa	-5490
▁ɛtwa	-5491
▁純全無疵	-5492
kɔnsɔn	-5493
▁awofo	-5494
▁hunta	-5495
▁kokoɔ	-5496
▁mekɔɔ	-5497
▁mugye	-5498
▁nhema	-5499
▁nufoɔ	-5500
▁pɛsɛɛ	-5501
▁weros	-5502
▁wɔtaa	-5503
▁主耶和華歟	-5504
▁aburow	-5505
▁afotuo	-5506
▁awareɛ	-5507
▁baanum	-5508
▁gerson	-5509
▁mehwɛe	-5510
▁montwe	-5511
▁ngodua	-5512
▁rebeka	-5513
▁siesie	-5514
▁ɔbɛdii	-5515
▁abiatar	-5516
▁etiopia	-5517
▁meremfa	-5518
▁nkurowa	-5519
▁ɔbɛtumi	-5520
▁babarima	-5521
▁mmerante	-5522
▁nnapɔnna	-5523
▁odwanten	-5524
▁wɔbɛtumi	-5525
▁filistini	-5526
▁yebusifoɔ	-5527
▁nkyerɛaseɛ	-5528
▁onifuraefo	-5529
▁呼	-5530
▁啞	-5531
▁噫	-5532
▁幕	-5533
▁新	-5534
▁望	-5535
▁植	-5536
▁環	-5537
▁甚	-5538
▁益	-5539
▁背	-5540
▁虜	-5541
▁雲	-5542
▁面	-5543
一年	-5544
不從	-5545
之亞	-5546
之有	-5547
之行	-5548
之際	-5549
以石	-5550
伊勒	-5551
信而	-5552
八人	-5553
其口	-5554
其神	-5555
召之	-5556
哈斯	-5557
地極	-5558
大雅	-5559
寄名	-5560
待爾	-5561
後裔	-5562
必不	-5563
所居	-5564
拿巴	-5565
接吻	-5566
揚聲	-5567
於水	-5568
既至	-5569
會集	-5570
有五	-5571
木作	-5572
核者	-5573
波設	-5574
為潔	-5575
無益	-5576
牡羔	-5577
特甚	-5578
皂莢	-5579
罪之	-5580
者得	-5581
聖徒	-5582
臨爾	-5583
至上	-5584
至聖	-5585
處女	-5586
謝拉	-5587
降災	-5588
離其	-5589
geb	-5590
omi	-5591
ote	-5592
pra	-5593
rsa	-5594
tem	-5595
▁亦為	-5596
▁以所	-5597
▁以金	-5598
▁使人	-5599
▁其聽	-5600
▁即我	-5601
▁在此	-5602
▁基甸	-5603
▁如我	-5604
▁左右	-5605
▁往哉	-5606
▁我雖	-5607
▁我非	-5608
▁此外	-5609
▁流便	-5610
▁爾於	-5611
▁當日	-5612
▁約蘭	-5613
▁西門	-5614
▁非也	-5615
付之於	-5616
其所為	-5617
子亞希	-5618
ammɔ	-5619
boni	-5620
dɔre	-5621
isɛm	-5622
rewa	-5623
twom	-5624
▁kuo	-5625
▁亞伯蘭	-5626
▁亞摩利	-5627
耶何耶大	-5628
dwerɛ	-5629
entan	-5630
▁afuw	-5631
▁amee	-5632
▁boro	-5633
▁bɔfo	-5634
▁ofii	-5635
▁pata	-5636
▁pete	-5637
▁usia	-5638
▁故耶和華	-5639
▁至於今日	-5640
亞倫及其子	-5641
rempɔn	-5642
▁abobo	-5643
▁abɛyɛ	-5644
▁asese	-5645
▁atotɔ	-5646
▁butuu	-5647
▁kɔtoo	-5648
▁mmɔre	-5649
▁mpren	-5650
▁negeb	-5651
▁nomee	-5652
▁salum	-5653
▁sufrɛ	-5654
▁tebea	-5655
▁wohui	-5656
▁wɔatu	-5657
▁wɔnka	-5658
▁yesua	-5659
wiinwii	-5660
▁adaban	-5661
▁akyere	-5662
▁bobesa	-5663
▁hilkia	-5664
▁lewini	-5665
▁minnim	-5666
▁moanya	-5667
▁mpasua	-5668
▁nkumaa	-5669
▁nnware	-5670
▁obegye	-5671
▁woagye	-5672
▁worebɛ	-5673
▁wɔreyɛ	-5674
▁ɔsusuu	-5675
▁ɛdɔɔso	-5676
urukyire	-5677
▁ahemman	-5678
▁anyinam	-5679
▁atenaeɛ	-5680
▁hwehwɛɛ	-5681
▁mprɛnsa	-5682
▁nketewa	-5683
▁ntweaso	-5684
▁tɛtrɛtɛ	-5685
▁wɔafiri	-5686
▁wɔbobɔɔ	-5687
▁wɔnhunu	-5688
kyekyeree	-5689
▁abusudeɛ	-5690
▁batakari	-5691
▁nkotosrɛ	-5692
▁nokwarem	-5693
▁aberempɔn	-5694
▁ahobrɛase	-5695
▁hohommɔne	-5696
▁atɛntrenee	-5697
▁nsubɔntene	-5698
▁nnwanhwɛfoɔ	-5699
▁nkɔnsɔnkɔnsɔn	-5700
oo	-5701
▁勝	-5702
▁和	-5703
▁尊	-5704
▁成	-5705
▁效	-5706
▁污	-5707
▁負	-5708
▁載	-5709
▁降	-5710
▁馬	-5711
七人	-5712
不悅	-5713
不欲	-5714
之二	-5715
之大	-5716
之工	-5717
之數	-5718
五人	-5719
作證	-5720
使人	-5721
儆醒	-5722
及我	-5723
家宰	-5724
尼子	-5725
巴勒	-5726
形軀	-5727
愛爾	-5728
我必	-5729
拉瑪	-5730
敬虔	-5731
於己	-5732
書蘭	-5733
歡樂	-5734
死中	-5735
流血	-5736
為善	-5737
焉能	-5738
焚之	-5739
無他	-5740
爾出	-5741
爾命	-5742
片時	-5743
王與	-5744
眾多	-5745
示我	-5746
耶西	-5747
聰明	-5748
至矣	-5749
舉目	-5750
藍紫	-5751
行浸	-5752
街衢	-5753
補過	-5754
西頓	-5755
諸天	-5756
近矣	-5757
陷於	-5758
隨之	-5759
非由	-5760
黎明	-5761
bna	-5762
bot	-5763
lai	-5764
sis	-5765
▁eu	-5766
▁不聽	-5767
▁世人	-5768
▁以東	-5769
▁何以	-5770
▁其一	-5771
▁其子	-5772
▁地上	-5773
▁如昔	-5774
▁必為	-5775
▁我欲	-5776
▁所行	-5777
▁智者	-5778
▁爾來	-5779
▁爾我	-5780
▁當以	-5781
▁眾皆	-5782
▁緣爾	-5783
▁翌日	-5784
▁若有	-5785
▁遣人	-5786
三色之	-5787
之使者	-5788
之四周	-5789
人之手	-5790
即位時	-5791
埃及之	-5792
希伯來	-5793
所行之	-5794
有孑遺	-5795
fraa	-5796
kafo	-5797
oteo	-5798
▁dee	-5799
▁hel	-5800
▁hoo	-5801
▁mam	-5802
▁sin	-5803
▁惟上帝	-5804
▁押尼珥	-5805
▁摩西曰	-5806
贖罪之祭	-5807
antee	-5808
boset	-5809
buafo	-5810
firim	-5811
tiriw	-5812
▁asia	-5813
▁bɛso	-5814
▁duro	-5815
▁elam	-5816
▁esra	-5817
▁etwa	-5818
▁menn	-5819
▁nhyi	-5820
▁nkae	-5821
▁odii	-5822
▁okuo	-5823
▁owui	-5824
▁sila	-5825
▁wakɔ	-5826
▁yerɛ	-5827
▁ɔpon	-5828
▁ɛbɛn	-5829
▁ɛhyɛ	-5830
▁ɛmfa	-5831
▁以色列歟	-5832
▁巴比倫王	-5833
▁歷至七日	-5834
▁迨夕乃免	-5835
於以色列人	-5836
於耶和華室	-5837
hyerɛn	-5838
kuntwe	-5839
soroni	-5840
womfoɔ	-5841
▁adiyi	-5842
▁akuro	-5843
▁akɔfa	-5844
▁ankyɛ	-5845
▁atoaa	-5846
▁kades	-5847
▁kyeeɛ	-5848
▁mebaa	-5849
▁moadi	-5850
▁sɔhwɛ	-5851
▁tease	-5852
▁waree	-5853
▁wɔahu	-5854
▁wɔawo	-5855
▁wɔnku	-5856
▁ɔbere	-5857
▁ɔreba	-5858
▁ɛfata	-5859
嫩之子約書亞	-5860
hunufoɔ	-5861
▁mefrɛɛ	-5862
▁mɛtena	-5863
▁taterɛ	-5864
▁tokuro	-5865
▁wobisa	-5866
▁wɔanya	-5867
▁ɔsɔree	-5868
▁akraman	-5869
▁ayupore	-5870
▁bɛkyerɛ	-5871
▁frankaa	-5872
▁momfiri	-5873
▁timoteo	-5874
▁ɔtamfoɔ	-5875
▁ɛrenkyɛ	-5876
▁adwumayɛ	-5877
▁kyerɛpɛn	-5878
▁mpofirim	-5879
▁nkotodwe	-5880
▁wɔbɛhunu	-5881
▁afɔremuka	-5882
▁atenetene	-5883
▁ogyaframa	-5884
▁anifuraefo	-5885
▁mpemaduonu	-5886
▁sorɔnsorɔn	-5887
▁ateneneefoɔ	-5888
▁benyaminfoɔ	-5889
▁ɔsorosoroni	-5890
▁均	-5891
▁救	-5892
▁方	-5893
▁易	-5894
▁殘	-5895
▁決	-5896
▁法	-5897
▁燬	-5898
▁獨	-5899
▁瑣	-5900
▁索	-5901
▁藉	-5902
▁解	-5903
▁過	-5904
▁風	-5905
▁驅	-5906
三百	-5907
不認	-5908
之如	-5909
之母	-5910
乳香	-5911
什一	-5912
企望	-5913
側耳	-5914
八年	-5915
八日	-5916
其頓	-5917
加拿	-5918
十人	-5919
友乎	-5920
受詛	-5921
同儕	-5922
啟口	-5923
在地	-5924
城邑	-5925
崇高	-5926
平安	-5927
必死	-5928
成全	-5929
戰士	-5930
所食	-5931
撒但	-5932
斯王	-5933
於所	-5934
於民	-5935
日下	-5936
有能	-5937
有言	-5938
東方	-5939
此諸	-5940
永例	-5941
淫亂	-5942
爾子	-5943
而入	-5944
聖物	-5945
自潔	-5946
西萊	-5947
該亞	-5948
語曰	-5949
遣爾	-5950
靡暨	-5951
dum	-5952
eli	-5953
fel	-5954
mpa	-5955
rna	-5956
sim	-5957
▁ɛd	-5958
▁其心	-5959
▁凡事	-5960
▁因彼	-5961
▁天下	-5962
▁惟當	-5963
五十人	-5964
便哈達	-5965
押尼珥	-5966
於曠野	-5967
日將至	-5968
與從者	-5969
frɔm	-5970
kani	-5971
siel	-5972
tase	-5973
toto	-5974
▁dwa	-5975
▁mae	-5976
▁mpɔ	-5977
▁mɛn	-5978
▁sem	-5979
▁sik	-5980
▁ɛyi	-5981
▁安息日	-5982
▁巴比倫	-5983
上帝之道	-5984
油之細麵	-5985
爾之上帝	-5986
mudeɛ	-5987
▁anum	-5988
▁asaf	-5989
▁bɛtɔ	-5990
▁dada	-5991
▁frɔm	-5992
▁keka	-5993
▁meso	-5994
▁mɛdi	-5995
▁nnka	-5996
▁nntu	-5997
▁ntea	-5998
▁ohui	-5999
▁onii	-6000
▁wabu	-6001
▁wɔdɔ	-6002
▁yoia	-6003
▁ɔfrɛ	-6004
▁ɔnka	-6005
▁ɔtaa	-6006
▁ɔtan	-6007
▁ɛsom	-6008
▁我耶和華	-6009
▁耶和華使	-6010
▁耶羅波安	-6011
上耶路撒冷	-6012
子耶羅波安	-6013
與以色列人	-6014
與列祖偕眠	-6015
inadab	-6016
▁ahɔho	-6017
▁akoko	-6018
▁akora	-6019
▁asisi	-6020
▁bɛnya	-6021
▁bɛyɛɛ	-6022
▁mebɔɔ	-6023
▁migye	-6024
▁mommɛ	-6025
▁nkogu	-6026
▁nnuru	-6027
▁otumi	-6028
▁safan	-6029
▁semes	-6030
▁wugye	-6031
▁wɔmmu	-6032
▁wɔmmɛ	-6033
▁yabes	-6034
▁yɛate	-6035
▁ɔbɛfa	-6036
▁abaawa	-6037
▁amanne	-6038
▁asiane	-6039
▁gadfoɔ	-6040
▁karmel	-6041
▁kɛntɛn	-6042
▁mprenu	-6043
▁nkyɛmu	-6044
▁tarsis	-6045
▁wobedi	-6046
▁wɔkumm	-6047
▁ɔsrane	-6048
▁告以色列族云	-6049
▁我上帝耶和華	-6050
▁耶和華之使者	-6051
▁adaaboɔ	-6052
▁akuakuo	-6053
▁amumɔyɛ	-6054
▁asiesie	-6055
▁hanania	-6056
▁nkuruwa	-6057
▁ntentan	-6058
▁wɔgyina	-6059
▁abususɛm	-6060
▁adwumfoɔ	-6061
▁frɔmfrɔm	-6062
▁kyekyere	-6063
▁ahantanfo	-6064
▁anyansafo	-6065
▁ninkuntwe	-6066
▁nnamfonom	-6067
▁ayuporebea	-6068
▁報	-6069
▁夏	-6070
▁外	-6071
▁好	-6072
▁尋	-6073
▁干	-6074
▁棄	-6075
▁母	-6076
▁祝	-6077
▁細	-6078
▁罪	-6079
之境	-6080
之狀	-6081
之約	-6082
之職	-6083
之酒	-6084
亦必	-6085
仆於	-6086
信乎	-6087
備之	-6088
出自	-6089
厥心	-6090
哈馬	-6091
四方	-6092
困憊	-6093
將以	-6094
尚有	-6095
己生	-6096
建之	-6097
摩拉	-6098
救爾	-6099
於何	-6100
於外	-6101
未有	-6102
殷勤	-6103
示巴	-6104
示麥	-6105
紅海	-6106
絕於	-6107
者以	-6108
而成	-6109
而立	-6110
與諸	-6111
舞蹈	-6112
良心	-6113
蔓延	-6114
藏於	-6115
行善	-6116
補服	-6117
錫爾	-6118
騎兵	-6119
默然	-6120
lki	-6121
▁其來	-6122
▁其父	-6123
▁即爾	-6124
▁及所	-6125
▁在爾	-6126
▁如彼	-6127
▁守我	-6128
▁將有	-6129
▁少者	-6130
▁我遂	-6131
▁拉班	-6132
▁於我	-6133
▁是故	-6134
▁未有	-6135
▁此非	-6136
▁然爾	-6137
▁爾曾	-6138
▁示每	-6139
▁福矣	-6140
▁自天	-6141
▁遂以	-6142
亞捫族	-6143
其子女	-6144
埃及王	-6145
拿撒勒	-6146
無酵餅	-6147
約但東	-6148
與之同	-6149
藍紫絳	-6150
頌美之	-6151
bunu	-6152
kyɛn	-6153
sraa	-6154
sɛne	-6155
totɔ	-6156
woso	-6157
▁aya	-6158
▁bil	-6159
▁duu	-6160
▁efe	-6161
▁yiw	-6162
▁掃羅曰	-6163
▁百夫長	-6164
▁約阿施	-6165
▁語之曰	-6166
▁迦勒底	-6167
三色之縷	-6168
便雅憫人	-6169
素祭灌祭	-6170
耶利米曰	-6171
耶和華者	-6172
ammoa	-6173
babel	-6174
frate	-6175
oahoa	-6176
onton	-6177
tidua	-6178
yanee	-6179
▁bota	-6180
▁bɛko	-6181
▁gera	-6182
▁hwie	-6183
▁kuku	-6184
▁piti	-6185
▁reko	-6186
▁teaa	-6187
▁twɛn	-6188
▁wɔsɔ	-6189
▁ɔnyi	-6190
▁ɛnkɔ	-6191
▁耶和華以	-6192
▁耶和華所	-6193
▁靡有孑遺	-6194
耶和華所命	-6195
fraase	-6196
hyɛnee	-6197
pehoma	-6198
▁amnon	-6199
▁annye	-6200
▁arnon	-6201
▁asina	-6202
▁kokom	-6203
▁kumfɔ	-6204
▁kusuu	-6205
▁mefaa	-6206
▁mesee	-6207
▁mmɛwa	-6208
▁peres	-6209
▁ramot	-6210
▁wamfa	-6211
▁yotam	-6212
▁ɔhome	-6213
wammɔne	-6214
▁akyene	-6215
▁anomaa	-6216
▁mfɛfoɔ	-6217
▁mɛsoma	-6218
▁ntɔkwa	-6219
▁osuani	-6220
▁somfoɔ	-6221
▁tempɔn	-6222
▁wobɛma	-6223
▁wɔakum	-6224
▁wɔanhu	-6225
▁ɔbodan	-6226
▁ɔhonam	-6227
▁ɔnokwa	-6228
▁ɔpaani	-6229
藍紫絳三色之縷	-6230
▁ahiafoɔ	-6231
▁ayeforɔ	-6232
▁eufrate	-6233
▁miamiaa	-6234
▁mmoakuo	-6235
▁monhunu	-6236
▁mɛkamfo	-6237
▁rentena	-6238
▁wobegye	-6239
▁wɔadane	-6240
▁wɔafira	-6241
▁wɔbɛfrɛ	-6242
▁wɔremfa	-6243
▁ɔfoforo	-6244
▁adekyeeɛ	-6245
▁adiyisɛm	-6246
▁nhyehyɛe	-6247
▁rubenfoɔ	-6248
▁wobɛhunu	-6249
▁dɔmmarima	-6250
▁misraimni	-6251
▁mmirekyie	-6252
▁nnommumfa	-6253
▁wɔantwerɛ	-6254
▁ntampehoma	-6255
mo	-6256
us	-6257
▁堅	-6258
▁定	-6259
▁室	-6260
▁察	-6261
▁布	-6262
▁弗	-6263
▁據	-6264
▁斷	-6265
▁智	-6266
▁柱	-6267
▁樂	-6268
▁獲	-6269
▁知	-6270
▁聖	-6271
▁舁	-6272
▁進	-6273
▁酒	-6274
▁釘	-6275
▁麥	-6276
世世	-6277
乃心	-6278
之先	-6279
之入	-6280
之士	-6281
之山	-6282
之幕	-6283
之羊	-6284
亞伯	-6285
享壽	-6286
伸冤	-6287
何言	-6288
偕居	-6289
億兆	-6290
入其	-6291
其妻	-6292
出之	-6293
利達	-6294
助之	-6295
問曰	-6296
在於	-6297
執兵	-6298
子乎	-6299
守其	-6300
守爾	-6301
寡婦	-6302
尼哈	-6303
巴錄	-6304
彼此	-6305
所聞	-6306
所選	-6307
所願	-6308
拉班	-6309
拜之	-6310
撒迦	-6311
敬畏	-6312
斥責	-6313
於邑	-6314
時之	-6315
曾孫	-6316
有六	-6317
武士	-6318
毅然	-6319
潔者	-6320
為所	-6321
為美	-6322
無罪	-6323
營外	-6324
爾也	-6325
狥欲	-6326
男子	-6327
病者	-6328
登舟	-6329
秉公	-6330
約伯	-6331
聖山	-6332
自知	-6333
舉祭	-6334
荒墟	-6335
諸神	-6336
謀害	-6337
譯即	-6338
貿易	-6339
賜之	-6340
轉而	-6341
追襲	-6342
途間	-6343
釋之	-6344
bad	-6345
kis	-6346
noa	-6347
rɔw	-6348
sor	-6349
▁不加	-6350
▁以刃	-6351
▁全地	-6352
▁凡歷	-6353
▁又見	-6354
▁古實	-6355
▁在我	-6356
▁彼既	-6357
▁悖逆	-6358
▁手執	-6359
▁智慧	-6360
▁然後	-6361
▁爾自	-6362
▁爾非	-6363
▁蓋凡	-6364
▁誰能	-6365
▁阿們	-6366
▁革順	-6367
上帝曰	-6368
埃及地	-6369
於天下	-6370
於王前	-6371
為爾所	-6372
王西宏	-6373
者之口	-6374
誠告爾	-6375
kyea	-6376
seia	-6377
▁bel	-6378
▁dae	-6379
▁oho	-6380
▁osi	-6381
▁pae	-6382
▁soo	-6383
▁米拉利	-6384
▁與其子	-6385
▁西布倫	-6386
以色列民	-6387
ameeɛ	-6388
fufuo	-6389
▁abua	-6390
▁abɔn	-6391
▁anis	-6392
▁buee	-6393
▁dura	-6394
▁kain	-6395
▁maki	-6396
▁mato	-6397
▁mesa	-6398
▁nidi	-6399
▁ntan	-6400
▁pira	-6401
▁sela	-6402
▁sidi	-6403
▁tutu	-6404
▁ɔnya	-6405
▁以上所載	-6406
▁我主我王	-6407
▁有如今日	-6408
▁爾其聽之	-6409
▁牡綿羊一	-6410
二十歲以上	-6411
耶路撒冷之	-6412
kyekye	-6413
▁abobɔ	-6414
▁anhyɛ	-6415
▁botan	-6416
▁bɛsɛe	-6417
▁dario	-6418
▁hwɛfo	-6419
▁lakis	-6420
▁mmuae	-6421
▁monna	-6422
▁mɛhyɛ	-6423
▁mɛtwe	-6424
▁ohwam	-6425
▁osebɔ	-6426
▁sanee	-6427
▁satan	-6428
▁wokaa	-6429
▁wonhu	-6430
▁wɔsan	-6431
▁wɔwea	-6432
▁ɔnnim	-6433
▁ɛboro	-6434
▁ɛbɛdi	-6435
▁在耶和華前	-6436
▁我誠誠告爾	-6437
之耶和華而誓	-6438
wentwɛn	-6439
▁aponto	-6440
▁kyeree	-6441
▁mikaia	-6442
▁mmfiri	-6443
▁monnya	-6444
▁ogyina	-6445
▁rekɔbɔ	-6446
▁wɔbɛte	-6447
▁wɔforo	-6448
▁wɔnhwɛ	-6449
▁ɔduruu	-6450
▁ɔntena	-6451
▁adoniya	-6452
▁akɔduru	-6453
▁animgua	-6454
▁asɔrefi	-6455
▁bɛgyina	-6456
▁hetifoɔ	-6457
▁mesulam	-6458
▁mmonhwa	-6459
▁mubenya	-6460
▁nenanom	-6461
▁osuboni	-6462
▁wɔbɛsɛe	-6463
▁以其慈惠永存兮	-6464
▁aduɔkron	-6465
▁nnwammaa	-6466
▁ɔrentumi	-6467
▁anwummere	-6468
▁wɔkunkumm	-6469
▁ɔberempɔn	-6470
▁ahodwirideɛ	-6471
▁ahonhommɔne	-6472
▁atirimuɔden	-6473
▁北	-6474
▁壯	-6475
▁娶	-6476
▁晝	-6477
▁束	-6478
▁核	-6479
▁祭	-6480
▁腰	-6481
▁蠢	-6482
中心	-6483
之望	-6484
之美	-6485
亞拿	-6486
他祭	-6487
仰望	-6488
何往	-6489
俄米	-6490
信實	-6491
偃臥	-6492
共與	-6493
其事	-6494
十日	-6495
卜筮	-6496
友朋	-6497
叢林	-6498
可也	-6499
呪詛	-6500
喧譁	-6501
國位	-6502
在世	-6503
大事	-6504
子米	-6505
將來	-6506
少許	-6507
工作	-6508
徒然	-6509
懇求	-6510
所許	-6511
接之	-6512
摩太	-6513
斯邑	-6514
於罪	-6515
昌熾	-6516
有云	-6517
有半	-6518
枯槁	-6519
求爾	-6520
洪水	-6521
海濱	-6522
煩擾	-6523
珥子	-6524
班次	-6525
瑪迦	-6526
由彼	-6527
眾民	-6528
稚獅	-6529
羅巴	-6530
耆老	-6531
而哭	-6532
而喜	-6533
而拜	-6534
而誇	-6535
聖名	-6536
聞此	-6537
聽從	-6538
能力	-6539
至而	-6540
與蜜	-6541
萬物	-6542
萬邦	-6543
行伍	-6544
術士	-6545
見而	-6546
詣爾	-6547
詭詐	-6548
諸會	-6549
諸民	-6550
責之	-6551
賜我	-6552
車騎	-6553
輕視	-6554
醫之	-6555
阿斯	-6556
顯者	-6557
食而	-6558
fun	-6559
har	-6560
hor	-6561
lat	-6562
ruk	-6563
sib	-6564
soo	-6565
wim	-6566
▁乃因	-6567
▁亦非	-6568
▁今當	-6569
▁何其	-6570
▁免我	-6571
▁勿以	-6572
▁容我	-6573
▁惟此	-6574
▁或以	-6575
▁於彼	-6576
▁晝夜	-6577
▁永世	-6578
▁畢生	-6579
▁眾遂	-6580
▁自謂	-6581
▁詰朝	-6582
▁迨及	-6583
▁錫安	-6584
之牧伯	-6585
伯利恆	-6586
及昆弟	-6587
在基督	-6588
希實本	-6589
於其所	-6590
獻禮物	-6591
生子女	-6592
約但河	-6593
細枲布	-6594
與之言	-6595
遵行之	-6596
hyew	-6597
neen	-6598
pepa	-6599
riel	-6600
tiaa	-6601
tufo	-6602
ummɛ	-6603
▁dɛm	-6604
▁ise	-6605
▁ken	-6606
▁pue	-6607
▁sui	-6608
▁yai	-6609
▁yis	-6610
▁ɔtu	-6611
▁今而後	-6612
▁祭司必	-6613
我之上帝	-6614
相對之所	-6615
聖所權衡	-6616
donia	-6617
kafoɔ	-6618
kotow	-6619
mmire	-6620
unini	-6621
▁asra	-6622
▁befi	-6623
▁boas	-6624
▁fire	-6625
▁gasa	-6626
▁kɛtɛ	-6627
▁lasa	-6628
▁nnie	-6629
▁nsɛe	-6630
▁ntut	-6631
▁pɛyɛ	-6632
▁twea	-6633
▁tɔnn	-6634
▁wahu	-6635
▁wate	-6636
▁ɔkum	-6637
▁亞比米勒	-6638
▁拿弗他利	-6639
▁歷世弗替	-6640
▁耶何耶大	-6641
duanan	-6642
▁apini	-6643
▁aseni	-6644
▁awere	-6645
▁baruk	-6646
▁beree	-6647
▁hiram	-6648
▁kekaa	-6649
▁makir	-6650
▁nkeka	-6651
▁nkura	-6652
▁nnane	-6653
▁nsene	-6654
▁sanku	-6655
▁silas	-6656
▁tetee	-6657
▁woahu	-6658
▁wɔnim	-6659
▁ɔdefo	-6660
▁ɔnhyɛ	-6661
▁一歲之牡羔	-6662
▁abisai	-6663
▁bɛduru	-6664
▁kokuro	-6665
▁mennim	-6666
▁mereyɛ	-6667
▁mfenaa	-6668
▁mmeamu	-6669
▁montwa	-6670
▁mpensa	-6671
▁naaman	-6672
▁rennya	-6673
▁seraia	-6674
▁sunsum	-6675
▁worekɔ	-6676
▁wɔkɔka	-6677
▁wɔsuro	-6678
▁ɔkɛseɛ	-6679
▁行耶和華所惡	-6680
▁abɛduru	-6681
▁adekora	-6682
▁aforoeɛ	-6683
▁asubura	-6684
▁ayamdeɛ	-6685
▁denneen	-6686
▁kotokuo	-6687
▁mfomsoɔ	-6688
▁nkɔmhyɛ	-6689
▁ɔhwehwɛ	-6690
▁萬軍之耶和華云	-6691
▁akɔkoraa	-6692
▁dunwɔtwe	-6693
▁kɔgyinaa	-6694
▁mprɛnson	-6695
▁nnawɔtwe	-6696
▁ntutummɛ	-6697
▁okunafoɔ	-6698
▁wɔhwehwɛ	-6699
▁abosonsom	-6700
▁akasakasa	-6701
▁akokoduru	-6702
▁aponkɛseɛ	-6703
▁makedonia	-6704
▁serubabel	-6705
▁wɔrentumi	-6706
▁ɔsorosoro	-6707
▁ɔkyekyeree	-6708
▁ankɔbeahene	-6709
▁俯	-6710
▁刃	-6711
▁密	-6712
▁己	-6713
▁懸	-6714
▁月	-6715
▁河	-6716
▁特	-6717
▁禱	-6718
▁羊	-6719
▁臨	-6720
▁製	-6721
▁逃	-6722
▁遺	-6723
七百	-6724
不顧	-6725
乃志	-6726
之光	-6727
之惡	-6728
之田	-6729
之界	-6730
之矣	-6731
之謀	-6732
之輩	-6733
之途	-6734
之邦	-6735
五年	-6736
以來	-6737
伊邇	-6738
僕婢	-6739
僕曰	-6740
償之	-6741
其主	-6742
其室	-6743
其母	-6744
其血	-6745
出於	-6746
則曰	-6747
受造	-6748
命爾	-6749
四千	-6750
土地	-6751
垂念	-6752
垂顧	-6753
天地	-6754
宣告	-6755
尤甚	-6756
山巔	-6757
巴底	-6758
年邁	-6759
心者	-6760
憂戚	-6761
我足	-6762
所得	-6763
所獲	-6764
所遇	-6765
探雅	-6766
斯事	-6767
於幕	-6768
有此	-6769
有聲	-6770
死矣	-6771
殺人	-6772
民長	-6773
求之	-6774
污衊	-6775
無幾	-6776
真實	-6777
祈求	-6778
終日	-6779
而自	-6780
耶戶	-6781
處之	-6782
裸體	-6783
西緬	-6784
誰乎	-6785
譜系	-6786
迦巴	-6787
革拉	-6788
食物	-6789
dod	-6790
hel	-6791
imu	-6792
num	-6793
tea	-6794
▁一為	-6795
▁來自	-6796
▁依爾	-6797
▁其聲	-6798
▁則以	-6799
▁十二	-6800
▁及我	-6801
▁呼曰	-6802
▁哀哉	-6803
▁啞𠵘	-6804
▁在天	-6805
▁導爾	-6806
▁巴珊	-6807
▁師乎	-6808
▁恐其	-6809
▁惟以	-6810
▁我口	-6811
▁我言	-6812
▁所有	-6813
▁是夜	-6814
▁死者	-6815
▁無所	-6816
▁爾今	-6817
▁爾目	-6818
▁王與	-6819
▁王謂	-6820
▁示巴	-6821
▁祈禱	-6822
▁答曰	-6823
▁緣此	-6824
▁致我	-6825
▁若然	-6826
▁若爾	-6827
▁葡萄	-6828
▁西緬	-6829
▁赫人	-6830
▁願我	-6831
上帝者	-6832
亞拉巴	-6833
半支派	-6834
名之曰	-6835
在埃及	-6836
多尼雅	-6837
布斯人	-6838
血氣者	-6839
biri	-6840
dɛre	-6841
enam	-6842
hare	-6843
kwan	-6844
toni	-6845
wuiɛ	-6846
yire	-6847
▁hem	-6848
▁hor	-6849
▁mee	-6850
▁rab	-6851
▁sil	-6852
▁wuu	-6853
▁wɔp	-6854
▁亞倫曰	-6855
▁埃及人	-6856
▁我呼籲	-6857
▁為爾所	-6858
可憎之事	-6859
拿弗他利	-6860
猶太人之	-6861
皂莢木作	-6862
rimaa	-6863
untum	-6864
▁abue	-6865
▁ahim	-6866
▁ante	-6867
▁apae	-6868
▁bɛbu	-6869
▁dwon	-6870
▁enye	-6871
▁eser	-6872
▁honi	-6873
▁kɔko	-6874
▁mono	-6875
▁oduu	-6876
▁sefa	-6877
▁soba	-6878
▁watu	-6879
▁wokɔ	-6880
▁wose	-6881
▁wuhu	-6882
▁wɔda	-6883
▁ɔbuu	-6884
▁ɔsɔɔ	-6885
▁亞撒利雅	-6886
▁以利亞撒	-6887
▁便雅憫人	-6888
▁𠵽唎㘔人	-6889
以色列人之	-6890
和油之細麵	-6891
應而語之曰	-6892
稱謝耶和華	-6893
antumi	-6894
▁akutu	-6895
▁anyan	-6896
▁asdod	-6897
▁efunu	-6898
▁ekron	-6899
▁menie	-6900
▁mpɛpɛ	-6901
▁mɛsan	-6902
▁naomi	-6903
▁nebat	-6904
▁nkɔtɔ	-6905
▁nsono	-6906
▁sekan	-6907
▁ɔhwɛɛ	-6908
▁ɔnnya	-6909
▁ɔtena	-6910
▁ɛsene	-6911
八子耶羅波安	-6912
祭司以利亞撒	-6913
行耶和華所惡	-6914
▁abrane	-6915
▁awɛmfo	-6916
▁ayamye	-6917
▁dunsia	-6918
▁gyefoɔ	-6919
▁hesron	-6920
▁mennya	-6921
▁mikyia	-6922
▁nhwɛso	-6923
▁nsunoa	-6924
▁ntease	-6925
▁seruia	-6926
▁wɔmmfa	-6927
▁wɔnsom	-6928
▁ɔbɛgye	-6929
▁ɔdwane	-6930
▁循其室家宗族	-6931
▁自二十歲以上	-6932
kyerɛfoɔ	-6933
▁aboɔden	-6934
▁akyɛdeɛ	-6935
▁anibere	-6936
▁demmire	-6937
▁maaseia	-6938
▁mesomaa	-6939
▁moabfoɔ	-6940
▁mpempem	-6941
▁ntwedeɛ	-6942
▁ntwonoo	-6943
▁wiasefo	-6944
▁wɔatoto	-6945
▁wɔntena	-6946
▁ɔgyefoɔ	-6947
▁abansoro	-6948
▁aboboano	-6949
▁atentene	-6950
▁bɛgyinaa	-6951
▁mmaninyɛ	-6952
▁mubetumi	-6953
▁teɛteɛɛm	-6954
▁wɔbɛtena	-6955
▁akyekyere	-6956
▁denneenen	-6957
▁monhwehwɛ	-6958
▁nkwaseasɛm	-6959
▁atɛntenenee	-6960
▁momonotofoɔ	-6961
▁ahohiahiafoɔ	-6962
il	-6963
▁光	-6964
▁兩	-6965
▁包	-6966
▁城	-6967
▁妄	-6968
▁災	-6969
▁牧	-6970
▁膏	-6971
▁違	-6972
一心	-6973
一處	-6974
不勝	-6975
不及	-6976
之肉	-6977
之能	-6978
亞嫩	-6979
亞設	-6980
亦將	-6981
以刃	-6982
以弗	-6983
伊拉	-6984
傾圮	-6985
其足	-6986
出入	-6987
加之	-6988
加以	-6989
動搖	-6990
勤勞	-6991
匱乏	-6992
商賈	-6993
器之	-6994
在焉	-6995
基拉	-6996
增益	-6997
奴隸	-6998
威烈	-6999
嫠婦	-7000
實突	-7001
居焉	-7002
巴沙	-7003
必為	-7004
惟一	-7005
我將	-7006
我怒	-7007
我手	-7008
所求	-7009
抱愧	-7010
擊爾	-7011
於凡	-7012
於後	-7013
旋歸	-7014
昆蟲	-7015
明日	-7016
末期	-7017
此而	-7018
毀滅	-7019
注目	-7020
洗別	-7021
淫婦	-7022
澣衣	-7023
烈火	-7024
無子	-7025
父之	-7026
相議	-7027
石榴	-7028
維何	-7029
而遁	-7030
蒺藜	-7031
行是	-7032
解之	-7033
訓詞	-7034
詛之	-7035
議會	-7036
谷中	-7037
辯論	-7038
農夫	-7039
革倫	-7040
香品	-7041
驚駭	-7042
ber	-7043
ewe	-7044
fet	-7045
nii	-7046
pee	-7047
pɔw	-7048
sto	-7049
▁al	-7050
▁中有	-7051
▁互相	-7052
▁今在	-7053
▁其國	-7054
▁利巴	-7055
▁則我	-7056
▁則見	-7057
▁否則	-7058
▁哈拿	-7059
▁如此	-7060
▁宣告	-7061
▁巴蘭	-7062
▁歸於	-7063
▁毀其	-7064
▁為人	-7065
▁爾手	-7066
▁瑪他	-7067
▁約但	-7068
▁蓋有	-7069
▁西頓	-7070
▁論及	-7071
▁豈能	-7072
▁遣使	-7073
之火祭	-7074
人之地	-7075
傳福音	-7076
就耶穌	-7077
所言者	-7078
於其身	-7079
殺人者	-7080
為我名	-7081
為永例	-7082
猶大家	-7083
由上帝	-7084
百夫長	-7085
約瑟曰	-7086
羅巴伯	-7087
蛾摩拉	-7088
迦南地	-7089
brɛɛ	-7090
ehas	-7091
hwɛɛ	-7092
kame	-7093
srɛɛ	-7094
twee	-7095
yeyɛ	-7096
▁bat	-7097
▁fuw	-7098
▁gua	-7099
▁guo	-7100
▁mag	-7101
▁nil	-7102
▁oba	-7103
▁owi	-7104
▁rim	-7105
▁tui	-7106
▁ɛna	-7107
▁亞瑪力	-7108
▁亞述王	-7109
▁末底改	-7110
▁烏西雅	-7111
▁獻燔祭	-7112
▁祭司長	-7113
▁見核者	-7114
▁豈不知	-7115
剛愎厥心	-7116
民以色列	-7117
知耶和華	-7118
約書亞曰	-7119
dwuma	-7120
omora	-7121
perna	-7122
sunti	-7123
▁akan	-7124
▁akis	-7125
▁amim	-7126
▁angu	-7127
▁atuu	-7128
▁bubu	-7129
▁guiɛ	-7130
▁hela	-7131
▁masa	-7132
▁mpea	-7133
▁nngu	-7134
▁ntua	-7135
▁otie	-7136
▁pele	-7137
▁wudi	-7138
▁yoel	-7139
▁ɔdaa	-7140
▁ɔsie	-7141
▁ɔteɛ	-7142
▁ɔyɛe	-7143
▁ɛkyɛ	-7144
▁即耶和華	-7145
▁我指己生	-7146
▁撒瑪利亞	-7147
▁爾之上帝	-7148
▁耶和華乃	-7149
以色列長老	-7150
fifiri	-7151
▁afono	-7152
▁ahofa	-7153
▁anisɔ	-7154
▁antie	-7155
▁bɛhwe	-7156
▁bɛsii	-7157
▁ebunu	-7158
▁guguu	-7159
▁hasor	-7160
▁horow	-7161
▁ketee	-7162
▁magye	-7163
▁manfo	-7164
▁mempɛ	-7165
▁mpete	-7166
▁mpini	-7167
▁nisuo	-7168
▁ntɔte	-7169
▁obehu	-7170
▁tenee	-7171
▁timna	-7172
▁totoo	-7173
▁tutuu	-7174
▁woakɔ	-7175
▁wobɔɔ	-7176
▁wonya	-7177
▁wotwa	-7178
▁wɔagu	-7179
▁wɔnom	-7180
▁yoram	-7181
▁yɛahu	-7182
▁yɛnni	-7183
▁ɔboda	-7184
▁ɔsram	-7185
▁以皂莢木作	-7186
▁耶穌應之曰	-7187
pernaum	-7188
▁abɔdeɛ	-7189
▁ahahan	-7190
▁atirim	-7191
▁atumfo	-7192
▁gomora	-7193
▁isebel	-7194
▁kasaeɛ	-7195
▁lasaro	-7196
▁mafiri	-7197
▁mmaran	-7198
▁mommrɛ	-7199
▁monhyɛ	-7200
▁nhyiam	-7201
▁ninewe	-7202
▁nkoraa	-7203
▁obenya	-7204
▁wobɛdi	-7205
▁wogyee	-7206
▁wɔanni	-7207
▁wɔbɛbɔ	-7208
▁wɔmmra	-7209
▁yɛanya	-7210
▁ɔmfiri	-7211
爾之上帝耶和華	-7212
kyerɛmma	-7213
▁ahurusi	-7214
▁akunafo	-7215
▁aweretɔ	-7216
▁awisiaa	-7217
▁ayarefo	-7218
▁menhunu	-7219
▁mɛkyerɛ	-7220
▁nhyɛsoɔ	-7221
▁pinehas	-7222
▁wobenya	-7223
▁wɔannye	-7224
▁wɔatena	-7225
▁wɔdwane	-7226
▁wɔkɔfaa	-7227
▁wɔrenhu	-7228
▁爾其頌美耶和華	-7229
▁hebrifoɔ	-7230
▁nokwasɛm	-7231
▁wasiesie	-7232
▁wɔanhunu	-7233
▁wɔsiesie	-7234
▁ɔnokwafo	-7235
▁adwemmɔne	-7236
▁akwammɔne	-7237
▁atuatefoɔ	-7238
▁kapernaum	-7239
▁merentumi	-7240
▁wɔasiesie	-7241
▁ahoɔdenfoɔ	-7242
▁basabasayɛ	-7243
▁nhunumufoɔ	-7244
▁sukyerɛmma	-7245
gi	-7246
lu	-7247
▁似	-7248
▁保	-7249
▁徧	-7250
▁捫	-7251
▁搖	-7252
▁毘	-7253
▁潔	-7254
▁竟	-7255
▁胡	-7256
▁處	-7257
▁覆	-7258
▁贖	-7259
▁逐	-7260
▁院	-7261
▁驕	-7262
七千	-7263
之像	-7264
之內	-7265
之樹	-7266
之羔	-7267
之脂	-7268
九年	-7269
人手	-7270
仇敵	-7271
以戰	-7272
以手	-7273
伏於	-7274
先見	-7275
入之	-7276
入室	-7277
公平	-7278
其位	-7279
出言	-7280
可食	-7281
四人	-7282
多日	-7283
大河	-7284
大而	-7285
奇異	-7286
奧妙	-7287
女也	-7288
妻孥	-7289
婦女	-7290
嬰孩	-7291
存日	-7292
將有	-7293
山岡	-7294
希臘	-7295
建立	-7296
影像	-7297
彼之	-7298
恐惶	-7299
我罪	-7300
所悅	-7301
所生	-7302
所用	-7303
拉伯	-7304
按手	-7305
敗壞	-7306
於獄	-7307
有力	-7308
棄爾	-7309
機檻	-7310
殲滅	-7311
永不	-7312
治之	-7313
為惡	-7314
無異	-7315
無赦	-7316
異能	-7317
發聲	-7318
破壞	-7319
稅吏	-7320
細亞	-7321
結果	-7322
羣臣	-7323
致死	-7324
艱苦	-7325
英武	-7326
草場	-7327
荒寂	-7328
虛無	-7329
行義	-7330
行而	-7331
見者	-7332
避所	-7333
邪慝	-7334
鑒察	-7335
飲酒	-7336
高處	-7337
aas	-7338
bor	-7339
dai	-7340
suw	-7341
tef	-7342
tot	-7343
weɛ	-7344
▁一日	-7345
▁不從	-7346
▁亞設	-7347
▁今則	-7348
▁勝於	-7349
▁即其	-7350
▁即在	-7351
▁因此	-7352
▁士子	-7353
▁子女	-7354
▁將至	-7355
▁悉以	-7356
▁我往	-7357
▁或曰	-7358
▁拉末	-7359
▁推羅	-7360
▁此事	-7361
▁此即	-7362
▁父歟	-7363
▁爾奚	-7364
▁爾未	-7365
▁米甸	-7366
▁米迦	-7367
▁維彼	-7368
▁耶西	-7369
▁自此	-7370
▁致其	-7371
▁若不	-7372
之為王	-7373
之遺民	-7374
五十肘	-7375
亞伯蘭	-7376
伊利亞	-7377
僕摩西	-7378
問爾安	-7379
四周之	-7380
在其中	-7381
在爾前	-7382
於爾者	-7383
於聖靈	-7384
有福兮	-7385
為我儕	-7386
烏利亞	-7387
爾之言	-7388
爾兄弟	-7389
而食之	-7390
至埃及	-7391
致之死	-7392
萬二千	-7393
西布倫	-7394
borɔ	-7395
daia	-7396
dwom	-7397
fere	-7398
kumm	-7399
sera	-7400
tuiɛ	-7401
ɛmma	-7402
▁fra	-7403
▁kɔm	-7404
▁mmm	-7405
▁mua	-7406
▁pem	-7407
▁twi	-7408
▁yeh	-7409
▁ɔwɛ	-7410
▁上帝必	-7411
▁其母名	-7412
子所羅門	-7413
歸耶和華	-7414
ammrɛ	-7415
gyesɛ	-7416
samma	-7417
wiraa	-7418
▁aguo	-7419
▁akwa	-7420
▁besi	-7421
▁eden	-7422
▁gyei	-7423
▁gyeɛ	-7424
▁kyɛm	-7425
▁kyɛn	-7426
▁kɔfa	-7427
▁metu	-7428
▁misu	-7429
▁ntra	-7430
▁salm	-7431
▁sawa	-7432
▁siee	-7433
▁stef	-7434
▁yedi	-7435
▁yosa	-7436
▁yɛnn	-7437
▁ɔmmu	-7438
▁ɔnsi	-7439
▁ɔnte	-7440
▁無人居處	-7441
於以色列中	-7442
獻於耶和華	-7443
與以色列眾	-7444
kenkan	-7445
kraman	-7446
kumfoɔ	-7447
tiokia	-7448
▁afifi	-7449
▁agyae	-7450
▁babea	-7451
▁botae	-7452
▁duraa	-7453
▁fomfa	-7454
▁hyira	-7455
▁koduu	-7456
▁kores	-7457
▁mihui	-7458
▁mmoro	-7459
▁moate	-7460
▁monte	-7461
▁nabal	-7462
▁nabot	-7463
▁nnaka	-7464
▁nsisi	-7465
▁nware	-7466
▁obuaa	-7467
▁rimon	-7468
▁sukot	-7469
▁woate	-7470
▁wɔtwa	-7471
▁wɔtɔn	-7472
▁yɛbea	-7473
▁ɛwowɔ	-7474
及昆弟十二人	-7475
risifoɔ	-7476
▁ahotua	-7477
▁anatot	-7478
▁bɛtotɔ	-7479
▁daadaa	-7480
▁dwanee	-7481
▁hasael	-7482
▁hetini	-7483
▁hoahoa	-7484
▁mobɛdi	-7485
▁mobɛka	-7486
▁nkatan	-7487
▁nnuaba	-7488
▁obadia	-7489
▁twitwa	-7490
▁wannya	-7491
▁wogyaa	-7492
▁wɔkasa	-7493
▁wɔkeka	-7494
▁wɔsoma	-7495
▁wɔtwaa	-7496
▁wɔwiee	-7497
▁俱載於以色列	-7498
▁我乃耶和華也	-7499
尼八子耶羅波安	-7500
▁adwenem	-7501
▁atumfoɔ	-7502
▁ketewaa	-7503
▁megyina	-7504
▁mmobɔeɛ	-7505
▁nokwafo	-7506
▁titiriw	-7507
▁wontumi	-7508
▁wɔadome	-7509
▁wɔahyia	-7510
▁ɔhyiraa	-7511
▁adansefo	-7512
▁adasamma	-7513
▁adwammaa	-7514
▁ahinanan	-7515
▁antiokia	-7516
▁asɛnnuam	-7517
▁ntamadan	-7518
▁nyaatwom	-7519
▁wobɛtumi	-7520
▁yehoahas	-7521
▁ɔtemmufo	-7522
▁adansefoɔ	-7523
▁adwadifoɔ	-7524
▁agyimisɛm	-7525
▁amradofoɔ	-7526
▁asinasini	-7527
▁atemmusɛm	-7528
▁dummiɛnsa	-7529
▁nuabarima	-7530
▁perisifoɔ	-7531
▁與其子及昆弟十二人	-7532
▁adwumayɛfo	-7533
▁mmɔborɔfoɔ	-7534
▁odwamamfoɔ	-7535
▁kyerɛkyerɛɛ	-7536
nn	-7537
▁匿	-7538
▁富	-7539
▁掠	-7540
▁曳	-7541
▁朔	-7542
▁歲	-7543
▁沿	-7544
▁牝	-7545
▁碎	-7546
▁神	-7547
▁移	-7548
▁簡	-7549
▁縱	-7550
▁裂	-7551
▁釋	-7552
▁野	-7553
▁隱	-7554
三千	-7555
乃以	-7556
之基	-7557
亦有	-7558
人而	-7559
仁愛	-7560
入城	-7561
全軍	-7562
八十	-7563
其怒	-7564
其諸	-7565
利乏	-7566
利沙	-7567
割禮	-7568
匱前	-7569
南方	-7570
及子	-7571
各人	-7572
同室	-7573
向之	-7574
哀悼	-7575
基甸	-7576
報復	-7577
如火	-7578
孤寡	-7579
孩提	-7580
孺子	-7581
專心	-7582
尚存	-7583
幕中	-7584
強者	-7585
我言	-7586
我魂	-7587
所在	-7588
所虜	-7589
提雅	-7590
救我	-7591
斯崙	-7592
斯言	-7593
旁立	-7594
有權	-7595
有罪	-7596
木石	-7597
欣然	-7598
汲水	-7599
洗人	-7600
深淵	-7601
濯身	-7602
為妻	-7603
為長	-7604
狂傲	-7605
狂風	-7606
獲福	-7607
疲憊	-7608
疾趨	-7609
盟約	-7610
相同	-7611
瞻望	-7612
祭品	-7613
窮乏	-7614
罪愆	-7615
者乃	-7616
而坐	-7617
而樂	-7618
而為	-7619
至彼	-7620
與民	-7621
萬國	-7622
虛誕	-7623
言時	-7624
訓誨	-7625
語之	-7626
諸惡	-7627
謙卑	-7628
豈不	-7629
蹂躪	-7630
追之	-7631
通達	-7632
遂起	-7633
野之	-7634
雅比	-7635
顯著	-7636
高者	-7637
fer	-7638
kel	-7639
kur	-7640
lal	-7641
rew	-7642
taw	-7643
tɛɛ	-7644
▁不至	-7645
▁不遵	-7646
▁二十	-7647
▁亦未	-7648
▁亦當	-7649
▁人將	-7650
▁以信	-7651
▁使為	-7652
▁其事	-7653
▁如經	-7654
▁婦曰	-7655
▁巴勒	-7656
▁彼在	-7657
▁彼曾	-7658
▁彼若	-7659
▁我觀	-7660
▁或作	-7661
▁掣籤	-7662
▁撒迦	-7663
▁於此	-7664
▁施恩	-7665
▁歌頌	-7666
▁爾意	-7667
▁爾有	-7668
▁蓋主	-7669
▁遂取	-7670
▁非以	-7671
其兄弟	-7672
加利亞	-7673
受割禮	-7674
在爾中	-7675
外無他	-7676
影像本	-7677
所有者	-7678
於會幕	-7679
於異邦	-7680
施恩座	-7681
書所載	-7682
猶大及	-7683
祭司職	-7684
稱謝爾	-7685
肉體之	-7686
與之偕	-7687
duaa	-7688
kana	-7689
rini	-7690
taim	-7691
wɛre	-7692
▁mik	-7693
▁tin	-7694
▁tɛk	-7695
▁ɔku	-7696
▁亞哈斯	-7697
▁亞瑪謝	-7698
▁但以理	-7699
▁在彼有	-7700
▁我之所	-7701
▁我今日	-7702
▁有一人	-7703
▁為素祭	-7704
亞撒利雅	-7705
亞比亞他	-7706
利未人之	-7707
於上帝之	-7708
為業之地	-7709
籲耶和華	-7710
antom	-7711
deser	-7712
wosow	-7713
▁abaw	-7714
▁abon	-7715
▁amos	-7716
▁ampɛ	-7717
▁asoa	-7718
▁elie	-7719
▁kyɛɛ	-7720
▁mana	-7721
▁mehu	-7722
▁mobɔ	-7723
▁mone	-7724
▁nohɔ	-7725
▁ohim	-7726
▁susa	-7727
▁waba	-7728
▁wawu	-7729
▁womm	-7730
▁wonn	-7731
▁yɛda	-7732
▁ɔbɛn	-7733
▁ɛhia	-7734
▁ɛhwɛ	-7735
▁ɛhye	-7736
▁必蒙不潔	-7737
▁撒母耳曰	-7738
▁歷四十年	-7739
▁耶穌應曰	-7740
▁迄於今日	-7741
埃及王法老	-7742
為以色列王	-7743
kurani	-7744
panyin	-7745
▁aduro	-7746
▁ahina	-7747
▁annya	-7748
▁araba	-7749
▁bubuu	-7750
▁bɛsom	-7751
▁bɛtwe	-7752
▁damoa	-7753
▁efeso	-7754
▁etire	-7755
▁hagar	-7756
▁hooyɛ	-7757
▁horon	-7758
▁libna	-7759
▁mabrɛ	-7760
▁mahwɛ	-7761
▁manka	-7762
▁melki	-7763
▁memmɛ	-7764
▁nahor	-7765
▁nsɔre	-7766
▁ntɛtɛ	-7767
▁onyaa	-7768
▁rehwɛ	-7769
▁sarai	-7770
▁wieeɛ	-7771
▁wuwui	-7772
▁wɔfom	-7773
▁wɔtan	-7774
▁ɔhyee	-7775
▁循聖所權衡	-7776
winnwen	-7777
▁aburoo	-7778
▁boaboa	-7779
▁elkana	-7780
▁hemmaa	-7781
▁hyɛnee	-7782
▁itamar	-7783
▁monsom	-7784
▁nkoguo	-7785
▁nsania	-7786
▁nyanee	-7787
▁pameeɛ	-7788
▁sankuo	-7789
▁wɔafom	-7790
▁wɔamma	-7791
▁wɔreba	-7792
▁ɔbɛsɛe	-7793
▁ɔkɔdeɛ	-7794
▁ɔremma	-7795
▁我指己生而誓	-7796
▁adebɔne	-7797
▁akunini	-7798
▁akwantu	-7799
▁atempɔn	-7800
▁bɔgyesɛ	-7801
▁dadwene	-7802
▁hewifoɔ	-7803
▁monhyia	-7804
▁nteaseɛ	-7805
▁nyarewa	-7806
▁susutoa	-7807
▁twitwaa	-7808
▁tɛkrɛma	-7809
▁wanhunu	-7810
▁wuranom	-7811
▁wɔbɛgye	-7812
▁wɔdɔɔso	-7813
▁wɔsiane	-7814
▁ɔbɛhunu	-7815
▁ɔkyerɛɛ	-7816
▁abarimaa	-7817
▁ahopopoɔ	-7818
▁kaesarea	-7819
▁sidonfoɔ	-7820
▁adaduanan	-7821
▁ahyiradeɛ	-7822
▁hadadeser	-7823
▁morentumi	-7824
▁torobɛnto	-7825
▁twetiatwa	-7826
▁巴比倫王尼布甲尼撒	-7827
▁萬軍之耶和華言之矣	-7828
▁anisoadehu	-7829
kɛ	-7830
nt	-7831
▁嗣	-7832
▁屈	-7833
▁急	-7834
▁恃	-7835
▁折	-7836
▁斫	-7837
▁極	-7838
▁歌	-7839
▁止	-7840
▁清	-7841
▁畏	-7842
▁異	-7843
▁登	-7844
▁繼	-7845
▁記	-7846
▁譬	-7847
▁購	-7848
▁超	-7849
▁閃	-7850
一欣	-7851
一言	-7852
三月	-7853
不死	-7854
不至	-7855
之來	-7856
之信	-7857
之去	-7858
之墓	-7859
之果	-7860
亞斯	-7861
亞薩	-7862
亦為	-7863
人為	-7864
伯拉	-7865
何其	-7866
何與	-7867
何處	-7868
作惡	-7869
偏於	-7870
六年	-7871
其目	-7872
冠冕	-7873
列陳	-7874
又曰	-7875
取一	-7876
古實	-7877
名曰	-7878
問安	-7879
塵埃	-7880
天國	-7881
如前	-7882
威嚴	-7883
家之	-7884
尚未	-7885
幼稚	-7886
得見	-7887
恆存	-7888
憐憫	-7889
撒路	-7890
撚綫	-7891
敗亡	-7892
斃之	-7893
斯世	-7894
於心	-7895
暴虐	-7896
有司	-7897
有數	-7898
服之	-7899
未人	-7900
末日	-7901
榮耀	-7902
此邑	-7903
殄滅	-7904
沙撒	-7905
潔之	-7906
燃火	-7907
爾知	-7908
甚眾	-7909
生於	-7910
由此	-7911
癩疾	-7912
發怒	-7913
禦之	-7914
立而	-7915
維倍	-7916
繁多	-7917
羅馬	-7918
而臥	-7919
而被	-7920
而降	-7921
耶琳	-7922
臨產	-7923
自卑	-7924
與子	-7925
與王	-7926
萬事	-7927
虛妄	-7928
見詛	-7929
該雅	-7930
誑言	-7931
誓曰	-7932
諸器	-7933
讚美	-7934
購之	-7935
轉離	-7936
迦密	-7937
醇醪	-7938
閽者	-7939
隙地	-7940
雅斤	-7941
鞫之	-7942
骨肉	-7943
fuw	-7944
fɛm	-7945
hab	-7946
ila	-7947
kom	-7948
pie	-7949
▁eg	-7950
▁ny	-7951
▁ru	-7952
▁且有	-7953
▁乃在	-7954
▁亦無	-7955
▁令人	-7956
▁以供	-7957
▁修葺	-7958
▁俯伏	-7959
▁俾得	-7960
▁其柱	-7961
▁其目	-7962
▁其言	-7963
▁其邑	-7964
▁凡爾	-7965
▁則勿	-7966
▁勿因	-7967
▁吹角	-7968
▁呼籲	-7969
▁命名	-7970
▁夙興	-7971
▁大利	-7972
▁奉事	-7973
▁如在	-7974
▁彼自	-7975
▁待我	-7976
▁必使	-7977
▁必蒙	-7978
▁患難	-7979
▁拉結	-7980
▁拯救	-7981
▁撒但	-7982
▁撒拉	-7983
▁撒督	-7984
▁斯乃	-7985
▁昔在	-7986
▁爾已	-7987
▁爾能	-7988
▁獻祭	-7989
▁王命	-7990
▁王歟	-7991
▁而自	-7992
▁迨其	-7993
之子孫	-7994
之於壇	-7995
乳與蜜	-7996
二十肘	-7997
亞捫人	-7998
亞瑪謝	-7999
以此言	-8000
以薩迦	-8001
別以東	-8002
受膏者	-8003
地之人	-8004
居於我	-8005
提摩太	-8006
於其首	-8007
為贖罪	-8008
爾列祖	-8009
爾所行	-8010
爾所言	-8011
而來者	-8012
與爾偕	-8013
葡萄樹	-8014
ferɛ	-8015
hema	-8016
huna	-8017
pete	-8018
riiɛ	-8019
tiel	-8020
unom	-8021
▁bɔn	-8022
▁haa	-8023
▁ner	-8024
▁sea	-8025
▁yan	-8026
▁ɔpo	-8027
▁ɛmm	-8028
▁亞蘭人	-8029
▁以斯帖	-8030
▁以薩迦	-8031
▁愛友乎	-8032
▁故爾當	-8033
▁比拿雅	-8034
▁為人所	-8035
▁約西亞	-8036
一百三十	-8037
之利未人	-8038
以色列地	-8039
伊法十分	-8040
原影像本	-8041
子約哈難	-8042
所立之約	-8043
無辜之血	-8044
耶和華藉	-8045
釘十字架	-8046
鋒刃饑饉	-8047
kyene	-8048
potam	-8049
sasar	-8050
tofel	-8051
▁afum	-8052
▁akɔn	-8053
▁amfi	-8054
▁anak	-8055
▁apin	-8056
▁bebu	-8057
▁bɛtu	-8058
▁dwan	-8059
▁gyae	-8060
▁gyaw	-8061
▁hwam	-8062
▁hyɛe	-8063
▁kena	-8064
▁magu	-8065
▁mmfi	-8066
▁moam	-8067
▁modi	-8068
▁mpin	-8069
▁nnue	-8070
▁retu	-8071
▁siba	-8072
▁tane	-8073
▁wada	-8074
▁wotu	-8075
▁wubu	-8076
▁wɔsu	-8077
▁ɛtoa	-8078
▁以為馨香	-8079
▁及凡所有	-8080
▁我必使爾	-8081
▁為耶和華	-8082
▁而遵行之	-8083
▁耶和華將	-8084
▁著為永例	-8085
以法蓮山地	-8086
以色列族中	-8087
先知以賽亞	-8088
入耶和華室	-8089
子以實瑪利	-8090
居耶路撒冷	-8091
撚綫細枲布	-8092
耶和華所悅	-8093
耶和華約匱	-8094
sianka	-8095
sunsum	-8096
▁adeko	-8097
▁akokɔ	-8098
▁bosuo	-8099
▁eliab	-8100
▁fitii	-8101
▁keila	-8102
▁mamfa	-8103
▁manoa	-8104
▁masɛe	-8105
▁medii	-8106
▁mikal	-8107
▁moahu	-8108
▁moann	-8109
▁monnɔ	-8110
▁mpuna	-8111
▁nkyɛm	-8112
▁nsopa	-8113
▁ntini	-8114
▁oguan	-8115
▁remmɔ	-8116
▁renwu	-8117
▁simri	-8118
▁susuo	-8119
▁teman	-8120
▁teɛɛm	-8121
▁tobia	-8122
▁wuram	-8123
▁wɔbɛn	-8124
▁wɔnsi	-8125
▁wɔtie	-8126
▁ɔbuaa	-8127
▁ɔbɛbɔ	-8128
▁ɔbɛsi	-8129
▁ɔbɛyi	-8130
▁ɔdiiɛ	-8131
▁ɔnhwɛ	-8132
▁ɔreyɛ	-8133
▁在撒瑪利亞	-8134
potamia	-8135
▁afurum	-8136
▁ahikam	-8137
▁atalia	-8138
▁atɛfoɔ	-8139
▁bɛkasa	-8140
▁bɛyera	-8141
▁kantan	-8142
▁mmaawa	-8143
▁monnye	-8144
▁nanteɛ	-8145
▁nkutoo	-8146
▁nnɔbae	-8147
▁nnɔɔso	-8148
▁nsonoe	-8149
▁nwanwa	-8150
▁rebɛko	-8151
▁sisera	-8152
▁wahunu	-8153
▁wasoma	-8154
▁woanya	-8155
▁wobɛka	-8156
▁wotumi	-8157
▁wɔabrɛ	-8158
▁wɔasra	-8159
▁wɔnnue	-8160
▁yearim	-8161
▁yoiada	-8162
▁ɔdefoɔ	-8163
▁adekyee	-8164
▁anantwi	-8165
▁bɛkamfo	-8166
▁kwadwom	-8167
▁mekamfo	-8168
▁merenyɛ	-8169
▁mmatiri	-8170
▁nkantom	-8171
▁nsramma	-8172
▁remfiri	-8173
▁wɔkamfo	-8174
▁ɔrennya	-8175
▁ɔtwerɛɛ	-8176
▁ɔwɛmfoɔ	-8177
▁則知我乃耶和華	-8178
▁ahitofel	-8179
▁mekyerɛw	-8180
▁menkyerɛ	-8181
▁meresoma	-8182
▁munnsuro	-8183
▁nkonimdi	-8184
▁obubuafo	-8185
▁abirekyie	-8186
▁mpiakyire	-8187
▁nkyekyere	-8188
▁ahyehyɛdeɛ	-8189
▁kronkronyɛ	-8190
▁wɔrehwehwɛ	-8191
▁以色列之上帝耶和華云	-8192
▁abosonsomfo	-8193
▁mesopotamia	-8194
pu	-8195
▁全	-8196
▁右	-8197
▁圍	-8198
▁座	-8199
▁怒	-8200
▁戮	-8201
▁招	-8202
▁接	-8203
▁收	-8204
▁服	-8205
▁直	-8206
▁積	-8207
▁編	-8208
▁舌	-8209
▁趨	-8210
▁車	-8211
▁遁	-8212
▁郇	-8213
▁銅	-8214
▁難	-8215
▁驢	-8216
一月	-8217
三次	-8218
不足	-8219
不食	-8220
之例	-8221
之壇	-8222
之族	-8223
之杖	-8224
之權	-8225
九十	-8226
人心	-8227
人於	-8228
以之	-8229
以待	-8230
伊甸	-8231
何事	-8232
何烈	-8233
來者	-8234
先導	-8235
入而	-8236
其女	-8237
其祖	-8238
分爭	-8239
利子	-8240
前往	-8241
勞力	-8242
受其	-8243
可拉	-8244
同往	-8245
向我	-8246
命名	-8247
哈薛	-8248
嗤笑	-8249
土產	-8250
地者	-8251
基雅	-8252
多弗	-8253
姍笑	-8254
子也	-8255
完人	-8256
尼微	-8257
幾何	-8258
思維	-8259
恩賜	-8260
惡行	-8261
我身	-8262
戒之	-8263
戶珥	-8264
所往	-8265
手執	-8266
拉吉	-8267
拿伯	-8268
提阿	-8269
於父	-8270
有四	-8271
望者	-8272
枲衣	-8273
權以	-8274
歷世	-8275
死於	-8276
殺爾	-8277
溫柔	-8278
父所	-8279
爾矣	-8280
王噩	-8281
瑪哈	-8282
瑪斯	-8283
生而	-8284
疏割	-8285
眾人	-8286
碧玉	-8287
約拿	-8288
納之	-8289
統轄	-8290
經行	-8291
經過	-8292
置之	-8293
者則	-8294
者至	-8295
而終	-8296
聖服	-8297
聞我	-8298
聞爾	-8299
與眾	-8300
葬於	-8301
薄暮	-8302
行其	-8303
被殺	-8304
覆之	-8305
詣我	-8306
該隱	-8307
諸善	-8308
識爾	-8309
貧窮	-8310
賜以	-8311
賞賚	-8312
載云	-8313
迄於	-8314
逐鬼	-8315
重負	-8316
食餅	-8317
高舉	-8318
dad	-8319
dak	-8320
dee	-8321
fas	-8322
mot	-8323
wuu	-8324
▁ef	-8325
▁一心	-8326
▁七月	-8327
▁且行	-8328
▁乃如	-8329
▁乃我	-8330
▁亞米	-8331
▁亦勿	-8332
▁使徒	-8333
▁俱必	-8334
▁免爾	-8335
▁其日	-8336
▁及王	-8337
▁外人	-8338
▁大地	-8339
▁如以	-8340
▁寅畏	-8341
▁尊榮	-8342
▁彼此	-8343
▁必歸	-8344
▁我敵	-8345
▁拿單	-8346
▁挪亞	-8347
▁斯時	-8348
▁此為	-8349
▁為王	-8350
▁爾行	-8351
▁由彼	-8352
▁示劍	-8353
▁聖靈	-8354
▁自我	-8355
▁自東	-8356
▁行於	-8357
▁諸天	-8358
▁頌讚	-8359
亞比篩	-8360
亞蘭王	-8361
人耶穌	-8362
其所言	-8363
我儕之	-8364
於我者	-8365
於祭司	-8366
濟約但	-8367
爾所為	-8368
犯之罪	-8369
西乃山	-8370
謂眾曰	-8371
遣我者	-8372
預言曰	-8373
ammɛ	-8374
baal	-8375
dini	-8376
fɛre	-8377
kran	-8378
mmoɔ	-8379
ripa	-8380
sɛeɛ	-8381
wano	-8382
▁ago	-8383
▁ann	-8384
▁bom	-8385
▁kus	-8386
▁reu	-8387
▁yaa	-8388
▁ɔsu	-8389
▁亞捫人	-8390
▁亞捫族	-8391
▁基路伯	-8392
▁大衛王	-8393
▁我知爾	-8394
▁故我儕	-8395
▁無論何	-8396
▁瑪利亞	-8397
▁西底家	-8398
三分之一	-8399
付於其手	-8400
出埃及時	-8401
子比拿雅	-8402
我主我王	-8403
所羅巴伯	-8404
所羅門王	-8405
無花果樹	-8406
獻之燔祭	-8407
anani	-8408
firii	-8409
kɔtwe	-8410
pirim	-8411
redee	-8412
sisii	-8413
sɛnee	-8414
woran	-8415
▁adɔn	-8416
▁afia	-8417
▁anto	-8418
▁atom	-8419
▁busu	-8420
▁bɛpo	-8421
▁esii	-8422
▁faeɛ	-8423
▁fifo	-8424
▁geba	-8425
▁hyew	-8426
▁mefa	-8427
▁mofa	-8428
▁mɛda	-8429
▁nsoa	-8430
▁onya	-8431
▁pene	-8432
▁pere	-8433
▁refa	-8434
▁tuaa	-8435
▁twae	-8436
▁tɔte	-8437
▁wato	-8438
▁woyi	-8439
▁wuiɛ	-8440
▁wɔhu	-8441
▁wɔsa	-8442
▁ɔdom	-8443
▁ɔfam	-8444
▁ɛsɛn	-8445
▁亞倫子孫	-8446
▁以利沙曰	-8447
▁我指維生	-8448
▁所羅門王	-8449
▁祭司諸長	-8450
▁與其昆弟	-8451
▁錫嘏於爾	-8452
乳與蜜之地	-8453
耶和華所言	-8454
hwerew	-8455
kyinii	-8456
risini	-8457
▁adepa	-8458
▁afire	-8459
▁asubɔ	-8460
▁bɛboa	-8461
▁bɛbua	-8462
▁bɛtwa	-8463
▁fuwii	-8464
▁koguu	-8465
▁kɔpem	-8466
▁mamma	-8467
▁matwa	-8468
▁mutie	-8469
▁mɛhwɛ	-8470
▁nadab	-8471
▁nkuku	-8472
▁nkɔfa	-8473
▁ogyim	-8474
▁okita	-8475
▁pirim	-8476
▁remfa	-8477
▁renni	-8478
▁seyie	-8479
▁sunsu	-8480
▁suroo	-8481
▁tirsa	-8482
▁woabɔ	-8483
▁wonyɛ	-8484
▁wusiw	-8485
▁wɔgye	-8486
▁yegye	-8487
▁yiyii	-8488
▁ɔkɛse	-8489
▁ɔnnye	-8490
▁ɔtane	-8491
▁ɔtene	-8492
▁以色列人歟	-8493
▁及耶路撒冷	-8494
▁爾之上帝也	-8495
▁耶和華上帝	-8496
hwanyan	-8497
▁asahel	-8498
▁ayamyi	-8499
▁bɛhyia	-8500
▁bɛtumi	-8501
▁dabida	-8502
▁duradu	-8503
▁gyinae	-8504
▁mibisa	-8505
▁mmuaeɛ	-8506
▁mmɛtem	-8507
▁monnka	-8508
▁mpennu	-8509
▁nsaman	-8510
▁nsiane	-8511
▁teefoɔ	-8512
▁titire	-8513
▁twenee	-8514
▁wasɔre	-8515
▁wobehu	-8516
▁wɔapam	-8517
▁wɔnkum	-8518
▁ɔtease	-8519
▁ɔwaree	-8520
▁ɛnkɔsi	-8521
kronkron	-8522
▁abohuro	-8523
▁adwotwa	-8524
▁akurofo	-8525
▁akɔkoaa	-8526
▁amantam	-8527
▁asaseta	-8528
▁atuateɛ	-8529
▁eliasib	-8530
▁mentumi	-8531
▁monkɔka	-8532
▁netania	-8533
▁nhwehwɛ	-8534
▁nnansia	-8535
▁siesiee	-8536
▁stefano	-8537
▁wɔasene	-8538
▁ɔbɛfiri	-8539
▁ɔnanani	-8540
▁以色列之上帝曰	-8541
▁abusuafo	-8542
▁adekodeɛ	-8543
▁asukɔtwe	-8544
▁farisini	-8545
▁kurakura	-8546
▁masiesie	-8547
▁mmɔntene	-8548
▁nteredee	-8549
▁ntɔteboa	-8550
▁teasefoɔ	-8551
▁wobetumi	-8552
▁ɔbabanin	-8553
▁ɔyaredɔm	-8554
▁aguamammɔ	-8555
▁agyinatuo	-8556
▁amalekfoɔ	-8557
▁anɔpahema	-8558
▁nkyɛkyerɛ	-8559
▁nkɔtɔkorɔ	-8560
▁俱載於以色列列王紀	-8561
▁agyinatufo	-8562
▁mmabaaberɛ	-8563
▁循耶和華所諭摩西之命	-8564
▁傷	-8565
▁具	-8566
▁固	-8567
▁姑	-8568
▁存	-8569
▁屢	-8570
▁左	-8571
▁患	-8572
▁應	-8573
▁朝	-8574
▁殿	-8575
▁男	-8576
▁白	-8577
▁空	-8578
▁竊	-8579
▁童	-8580
▁聲	-8581
▁蘇	-8582
▁親	-8583
▁許	-8584
▁道	-8585
▁靈	-8586
▁鬼	-8587
一意	-8588
不善	-8589
不虔	-8590
之律	-8591
之怒	-8592
乎我	-8593
乎爾	-8594
乘馬	-8595
亞巴	-8596
亞衲	-8597
他錄	-8598
付爾	-8599
以聽	-8600
何人	-8601
侃侃	-8602
充滿	-8603
入我	-8604
其果	-8605
其榮	-8606
其為	-8607
其義	-8608
其間	-8609
凌辱	-8610
初實	-8611
劬勞	-8612
卻退	-8613
去之	-8614
后妃	-8615
向爾	-8616
咆哮	-8617
咸至	-8618
問其	-8619
啦吡	-8620
善言	-8621
回意	-8622
塵土	-8623
士都	-8624
壽高	-8625
大力	-8626
奇兆	-8627
女曰	-8628
妻室	-8629
嫉妒	-8630
宜也	-8631
家者	-8632
容其	-8633
實基	-8634
將為	-8635
屬我	-8636
山之	-8637
己身	-8638
已至	-8639
廢之	-8640
建築	-8641
往攻	-8642
得拉	-8643
思之	-8644
我來	-8645
戰者	-8646
所云	-8647
所誓	-8648
拿八	-8649
提人	-8650
播種	-8651
攜至	-8652
敵手	-8653
新婦	-8654
於他	-8655
日間	-8656
時而	-8657
有大	-8658
林木	-8659
業於	-8660
榮之	-8661
污鬼	-8662
沙基	-8663
沾恩	-8664
為主	-8665
為祭	-8666
為首	-8667
焚燬	-8668
爾罪	-8669
牡牛	-8670
珍寶	-8671
生也	-8672
生亞	-8673
生活	-8674
百肘	-8675
皆然	-8676
相連	-8677
眾前	-8678
祭祀	-8679
禧年	-8680
稱頌	-8681
立為	-8682
米拉	-8683
約蘭	-8684
經營	-8685
羅珥	-8686
羣眾	-8687
者同	-8688
者自	-8689
者見	-8690
而亡	-8691
膏之	-8692
臨我	-8693
自始	-8694
至大	-8695
與彼	-8696
萬人	-8697
蔑視	-8698
見此	-8699
諸罪	-8700
謹守	-8701
識者	-8702
貧民	-8703
跛者	-8704
踴躍	-8705
輔助	-8706
輕重	-8707
遁逃	-8708
金環	-8709
隕沒	-8710
隨魯	-8711
集於	-8712
離棄	-8713
革囊	-8714
鞫爾	-8715
顚仆	-8716
高臺	-8717
魯雅	-8718
bie	-8719
dal	-8720
eeɛ	-8721
gon	-8722
iot	-8723
mai	-8724
rii	-8725
▁im	-8726
▁一名	-8727
▁三日	-8728
▁不受	-8729
▁不足	-8730
▁不遺	-8731
▁乃於	-8732
▁乃曰	-8733
▁乃自	-8734
▁以攔	-8735
▁何也	-8736
▁其主	-8737
▁其口	-8738
▁其妻	-8739
▁其手	-8740
▁凡在	-8741
▁列國	-8742
▁利亞	-8743
▁勿復	-8744
▁勿為	-8745
▁勿畏	-8746
▁勿與	-8747
▁問安	-8748
▁守其	-8749
▁導我	-8750
▁希律	-8751
▁彼雖	-8752
▁必循	-8753
▁慎勿	-8754
▁我素	-8755
▁我謂	-8756
▁我願	-8757
▁所獻	-8758
▁所言	-8759
▁故主	-8760
▁方伯	-8761
▁書達	-8762
▁次日	-8763
▁正月	-8764
▁為眾	-8765
▁無能	-8766
▁爾使	-8767
▁終日	-8768
▁編註	-8769
▁群眾	-8770
▁腓立	-8771
▁至今	-8772
▁若非	-8773
▁遂與	-8774
▁野獸	-8775
▁隨意	-8776
一伊法	-8777
上上帝	-8778
之以火	-8779
之於地	-8780
五千肘	-8781
亞哈謝	-8782
以精金	-8783
何為乎	-8784
侍衛長	-8785
其所欲	-8786
利百加	-8787
加低斯	-8788
十四日	-8789
原文作	-8790
四千人	-8791
大衛王	-8792
居斯土	-8793
巴拿巴	-8794
干罪戾	-8795
彼拉多	-8796
惡人之	-8797
於陰府	-8798
渡約但	-8799
由死中	-8800
眾先知	-8801
示瑪雅	-8802
者之言	-8803
而不得	-8804
而為之	-8805
行殺戮	-8806
雅各家	-8807
馬其頓	-8808
drak	-8809
dwan	-8810
fura	-8811
koma	-8812
kyen	-8813
kyɛw	-8814
kɛse	-8815
nidi	-8816
suwa	-8817
tuma	-8818
uano	-8819
▁aro	-8820
▁atɛ	-8821
▁bee	-8822
▁bɛm	-8823
▁fui	-8824
▁hur	-8825
▁kir	-8826
▁nno	-8827
▁pɔw	-8828
▁tan	-8829
▁usa	-8830
▁yok	-8831
▁亞蘭王	-8832
▁以賽亞	-8833
▁伯利恆	-8834
▁侍衛長	-8835
▁原文曰	-8836
▁年二十	-8837
▁我在此	-8838
▁為我所	-8839
▁爾與爾	-8840
▁耶弗他	-8841
▁蛾摩拉	-8842
▁謳歌者	-8843
▁迦得人	-8844
以實瑪利	-8845
十舍客勒	-8846
子以利亞	-8847
榮於上帝	-8848
澣衣濯身	-8849
牡山羊一	-8850
betie	-8851
defoɔ	-8852
kanee	-8853
pɛfoɔ	-8854
tɔfoɔ	-8855
wareɛ	-8856
▁aniɛ	-8857
▁aram	-8858
▁atie	-8859
▁atrɛ	-8860
▁awuo	-8861
▁bara	-8862
▁bɛsa	-8863
▁diiɛ	-8864
▁eber	-8865
▁mefi	-8866
▁modɔ	-8867
▁mɛbu	-8868
▁mɛfa	-8869
▁nebo	-8870
▁nkra	-8871
▁odum	-8872
▁omri	-8873
▁otuu	-8874
▁remm	-8875
▁reyi	-8876
▁safo	-8877
▁sian	-8878
▁wafa	-8879
▁ɔsra	-8880
▁ɔtrɛ	-8881
▁ɔwui	-8882
▁ɛfam	-8883
▁亞摩利人	-8884
▁以實瑪利	-8885
▁凡其所行	-8886
▁區別為聖	-8887
▁將至何時	-8888
▁時日將至	-8889
▁比利洗人	-8890
▁猶生子女	-8891
▁萬軍之主	-8892
以色列支派	-8893
先知耶利米	-8894
▁abasa	-8895
▁adwin	-8896
▁ahode	-8897
▁apira	-8898
▁apopo	-8899
▁bɛbɔɔ	-8900
▁bɛtoa	-8901
▁dibea	-8902
▁didii	-8903
▁dompe	-8904
▁enyin	-8905
▁heman	-8906
▁hosea	-8907
▁huhuo	-8908
▁huuyɛ	-8909
▁hyɛne	-8910
▁kasaa	-8911
▁kɔdii	-8912
▁mafrɛ	-8913
▁marta	-8914
▁media	-8915
▁mente	-8916
▁minhu	-8917
▁mommu	-8918
▁mɛnya	-8919
▁mɛtwa	-8920
▁nkɔko	-8921
▁nsɔfo	-8922
▁ntira	-8923
▁rabsa	-8924
▁senee	-8925
▁srade	-8926
▁usiel	-8927
▁wanka	-8928
▁wɔaba	-8929
▁wɔasi	-8930
▁wɔbuu	-8931
▁wɔmpɛ	-8932
▁wɔnyi	-8933
▁wɔsɛe	-8934
▁ɔbrɛɛ	-8935
▁ɔware	-8936
▁ɔyere	-8937
▁ɛbɛka	-8938
▁至耶路撒冷	-8939
於以色列人前	-8940
▁afiafi	-8941
▁ahemfi	-8942
▁ahohia	-8943
▁apaafo	-8944
▁awadeɛ	-8945
▁barima	-8946
▁bɛtwaa	-8947
▁damena	-8948
▁firiiɛ	-8949
▁madane	-8950
▁malkia	-8951
▁merebɔ	-8952
▁mikael	-8953
▁mitumi	-8954
▁mmuano	-8955
▁moanni	-8956
▁mompae	-8957
▁monwɛn	-8958
▁mpemha	-8959
▁mprako	-8960
▁nebusa	-8961
▁nhyɛne	-8962
▁nkɔsom	-8963
▁nuamma	-8964
▁obosuo	-8965
▁okuafo	-8966
▁towgye	-8967
▁wantie	-8968
▁wɔahwe	-8969
▁wɔbɛba	-8970
▁wɔdane	-8971
▁wɔtwee	-8972
▁yehoas	-8973
▁yiedie	-8974
▁ɔbɛwuo	-8975
▁ɛmfiri	-8976
猶大及耶路撒冷	-8977
▁ahuhuro	-8978
▁anifira	-8979
▁bebisaa	-8980
▁mpemnum	-8981
▁nkonyaa	-8982
▁owusɔre	-8983
▁teteete	-8984
▁twaberɛ	-8985
▁wɔabobɔ	-8986
▁wɔabubu	-8987
▁wɔasɔre	-8988
▁wɔsomaa	-8989
於爾上帝耶和華前	-8990
▁asafokuo	-8991
▁bansifoɔ	-8992
▁moabhene	-8993
▁mohwehwɛ	-8994
▁mpenafoɔ	-8995
▁nkatasoɔ	-8996
▁nkotokuo	-8997
▁nkɔkoraa	-8998
▁wɔbɛfiri	-8999
▁wɔrennya	-9000
▁ɔhyehyɛɛ	-9001
▁ɔkɔtenaa	-9002
▁animguase	-9003
▁mmɔfraase	-9004
▁nneduafoɔ	-9005
▁nsɔfokwaa	-9006
▁merekyerɛw	-9007
▁ohwamfufuo	-9008
▁ɔnyinsɛnee	-9009
▁gyataburuwa	-9010
▁odwanhwɛfoɔ	-9011
▁mmeranteberɛ	-9012
ok	-9013
▁伸	-9014
▁偽	-9015
▁兼	-9016
▁勸	-9017
▁喜	-9018
▁增	-9019
▁忍	-9020
▁懷	-9021
▁持	-9022
▁掌	-9023
▁教	-9024
▁普	-9025
▁氣	-9026
▁築	-9027
▁羅	-9028
▁美	-9029
▁老	-9030
▁耳	-9031
▁聚	-9032
▁舟	-9033
▁良	-9034
▁色	-9035
▁託	-9036
▁謀	-9037
▁路	-9038
▁餘	-9039
▁鬻	-9040
一事	-9041
三子	-9042
不之	-9043
不在	-9044
不明	-9045
中諸	-9046
之使	-9047
之年	-9048
之樂	-9049
之院	-9050
之馬	-9051
乎此	-9052
二族	-9053
付我	-9054
以攻	-9055
以義	-9056
以銀	-9057
任其	-9058
任職	-9059
伯農	-9060
六千	-9061
兵卒	-9062
其力	-9063
其尸	-9064
創造	-9065
勒斯	-9066
十肘	-9067
厥祖	-9068
反之	-9069
口撒	-9070
古列	-9071
名而	-9072
告人	-9073
告曰	-9074
問之	-9075
嘉音	-9076
四年	-9077
四日	-9078
回轉	-9079
外戚	-9080
外院	-9081
天降	-9082
婦曰	-9083
室中	-9084
少年	-9085
尚在	-9086
尤多	-9087
尼人	-9088
居爾	-9089
己所	-9090
已屆	-9091
弱者	-9092
往來	-9093
必成	-9094
忠信	-9095
恃之	-9096
意謂	-9097
愧怍	-9098
應之	-9099
懲罰	-9100
所建	-9101
所惡	-9102
所當	-9103
所簡	-9104
所需	-9105
拉人	-9106
提甯	-9107
搖祭	-9108
於前	-9109
暗嫩	-9110
書珊	-9111
未見	-9112
柱像	-9113
植之	-9114
欺誑	-9115
此地	-9116
死而	-9117
比擬	-9118
毘珥	-9119
永世	-9120
流涕	-9121
流離	-9122
深處	-9123
滄海	-9124
為者	-9125
烏有	-9126
無盡	-9127
爭辯	-9128
爾身	-9129
王命	-9130
琴瑟	-9131
田疇	-9132
由於	-9133
百合	-9134
相愛	-9135
真知	-9136
眷屬	-9137
眾女	-9138
神像	-9139
窘迫	-9140
第雅	-9141
米迦	-9142
給之	-9143
經火	-9144
羞愧	-9145
者當	-9146
聖神	-9147
自救	-9148
至西	-9149
與同	-9150
芳品	-9151
蒙召	-9152
解其	-9153
諭爾	-9154
識我	-9155
豈能	-9156
貪婪	-9157
迦薩	-9158
迷惑	-9159
逃遁	-9160
遘疾	-9161
集之	-9162
集其	-9163
靜默	-9164
面之	-9165
顧之	-9166
驕矜	-9167
鼓琴	-9168
bai	-9169
dek	-9170
eka	-9171
hwa	-9172
kaw	-9173
lag	-9174
mpɔ	-9175
tub	-9176
▁不欲	-9177
▁不與	-9178
▁乃謂	-9179
▁亞基	-9180
▁以代	-9181
▁以避	-9182
▁其二	-9183
▁其裔	-9184
▁則無	-9185
▁吾子	-9186
▁嗣後	-9187
▁尼布	-9188
▁山嶽	-9189
▁彼遂	-9190
▁往告	-9191
▁必取	-9192
▁必在	-9193
▁必皆	-9194
▁悉屬	-9195
▁惟願	-9196
▁意謂	-9197
▁我即	-9198
▁我命	-9199
▁我得	-9200
▁我當	-9201
▁我立	-9202
▁所為	-9203
▁有何	-9204
▁有聲	-9205
▁歷十	-9206
▁燔祭	-9207
▁爾曰	-9208
▁爾無	-9209
▁爾祖	-9210
▁異邦	-9211
▁當憶	-9212
▁皆必	-9213
▁約坦	-9214
▁而無	-9215
▁耶利	-9216
▁自今	-9217
▁與諸	-9218
▁蓋知	-9219
▁見一	-9220
▁諸民	-9221
▁謝拉	-9222
▁譯即	-9223
▁賜以	-9224
▁迄今	-9225
▁遂起	-9226
▁頌美	-9227
七十人	-9228
上帝兮	-9229
不可食	-9230
不得入	-9231
之人兮	-9232
之先知	-9233
之貨財	-9234
乎上帝	-9235
以弗所	-9236
其居民	-9237
基伊拉	-9238
子亞撒	-9239
居於彼	-9240
希勒家	-9241
我之言	-9242
我典章	-9243
提甯人	-9244
於大衛	-9245
於我父	-9246
於法老	-9247
於爾曹	-9248
於錫安	-9249
死者之	-9250
沙比雅	-9251
為不潔	-9252
牡犢一	-9253
猶大眾	-9254
答之曰	-9255
聽我聲	-9256
臨陳者	-9257
與之戰	-9258
與我偕	-9259
許之願	-9260
負其罪	-9261
賜爾之	-9262
非波設	-9263
食其果	-9264
buae	-9265
deda	-9266
fafa	-9267
fune	-9268
gyam	-9269
hasi	-9270
onko	-9271
onom	-9272
pane	-9273
rmon	-9274
sena	-9275
sopa	-9276
tefo	-9277
woeɛ	-9278
▁apɔ	-9279
▁awi	-9280
▁gal	-9281
▁hen	-9282
▁koe	-9283
▁kor	-9284
▁mfo	-9285
▁sae	-9286
▁sur	-9287
▁suu	-9288
▁wɛn	-9289
▁ɔta	-9290
▁ɔya	-9291
▁上帝僕	-9292
▁亞哈謝	-9293
▁利巴嫩	-9294
▁利百加	-9295
▁即基督	-9296
▁大衛謂	-9297
▁宜頌美	-9298
▁希伯來	-9299
▁彼之所	-9300
▁惡者之	-9301
▁我未嘗	-9302
▁歷二十	-9303
▁殺無赦	-9304
▁為燔祭	-9305
▁爾為誰	-9306
▁耶利哥	-9307
▁若有人	-9308
▁願上帝	-9309
上帝之匱	-9310
之猶大人	-9311
亞摩利人	-9312
及其鄉里	-9313
子基大利	-9314
守逾越節	-9315
該撒利亞	-9316
anneɛ	-9317
bilon	-9318
butuu	-9319
lonka	-9320
nifoɔ	-9321
paapa	-9322
radan	-9323
sedek	-9324
sofoɔ	-9325
▁abed	-9326
▁akon	-9327
▁ammɔ	-9328
▁asun	-9329
▁betu	-9330
▁bɛsɔ	-9331
▁emfi	-9332
▁enwi	-9333
▁mebɛ	-9334
▁mitu	-9335
▁mubu	-9336
▁nego	-9337
▁nkan	-9338
▁nwon	-9339
▁obuu	-9340
▁pamm	-9341
▁sraa	-9342
▁tumm	-9343
▁woda	-9344
▁wɔye	-9345
▁yedu	-9346
▁yopa	-9347
▁ɔmmɔ	-9348
▁ɔmpɛ	-9349
▁ɛbae	-9350
▁ɛnsa	-9351
▁代為贖罪	-9352
▁為酬恩祭	-9353
▁耶和華命	-9354
恆獻之燔祭	-9355
我民以色列	-9356
anante	-9357
dwirii	-9358
gyefoɔ	-9359
hyiraa	-9360
koroma	-9361
tekwaa	-9362
▁abɛka	-9363
▁abɛto	-9364
▁amram	-9365
▁anhwɛ	-9366
▁aroer	-9367
▁awowa	-9368
▁awuwu	-9369
▁bɛbrɛ	-9370
▁dwira	-9371
▁festo	-9372
▁geser	-9373
▁gosen	-9374
▁gyaee	-9375
▁hanam	-9376
▁hiani	-9377
▁horeb	-9378
▁kyere	-9379
▁matwe	-9380
▁menya	-9381
▁mesak	-9382
▁mmɛyɛ	-9383
▁moakɔ	-9384
▁motee	-9385
▁munya	-9386
▁mɛboa	-9387
▁nnidi	-9388
▁onnim	-9389
▁rebrɛ	-9390
▁rekab	-9391
▁wabrɛ	-9392
▁wampɛ	-9393
▁watwe	-9394
▁wohwɛ	-9395
▁wokae	-9396
▁wɔyɛe	-9397
▁yenni	-9398
▁yɛadi	-9399
▁yɛyɛɛ	-9400
▁ɔkaeɛ	-9401
▁ɔkura	-9402
▁ɔtoro	-9403
▁以色列家歟	-9404
▁俱載於猶大	-9405
▁寅畏耶和華	-9406
▁尼布甲尼撒	-9407
▁祭司利未人	-9408
▁自耶路撒冷	-9409
流乳與蜜之地	-9410
kunkumm	-9411
wansuwa	-9412
▁afideɛ	-9413
▁agyira	-9414
▁amaria	-9415
▁anhunu	-9416
▁animka	-9417
▁atenae	-9418
▁awufoɔ	-9419
▁baalim	-9420
▁dommum	-9421
▁elifas	-9422
▁hankra	-9423
▁kenkan	-9424
▁kurobo	-9425
▁mesuro	-9426
▁midwen	-9427
▁mmɔkaw	-9428
▁mommoa	-9429
▁mpemdu	-9430
▁mpɔmpɔ	-9431
▁nkyiri	-9432
▁nnesoa	-9433
▁ntakra	-9434
▁nyinii	-9435
▁olonka	-9436
▁sadrak	-9437
▁siklag	-9438
▁woamma	-9439
▁wobɛbɔ	-9440
▁woreka	-9441
▁wotwaa	-9442
▁wɔbɛkɔ	-9443
▁wɔhyee	-9444
▁wɔnyaa	-9445
▁wɔrebɔ	-9446
▁wɔsɛee	-9447
▁wɔyɛeɛ	-9448
▁yefune	-9449
▁ɔsisii	-9450
▁嫩之子約書亞	-9451
探雅子以實瑪利	-9452
ontonkyi	-9453
▁adamena	-9454
▁aduhuam	-9455
▁adwadeɛ	-9456
▁adɔeɛyɛ	-9457
▁afifide	-9458
▁ahimaas	-9459
▁aniɛden	-9460
▁anofafa	-9461
▁atorofo	-9462
▁awudifo	-9463
▁babilon	-9464
▁bɛsiane	-9465
▁bɛtenaa	-9466
▁danseni	-9467
▁hwanyan	-9468
▁kurotia	-9469
▁matania	-9470
▁menkasa	-9471
▁merenkɔ	-9472
▁migyina	-9473
▁morenhu	-9474
▁mubegye	-9475
▁nkataho	-9476
▁nsɔwano	-9477
▁ntafowa	-9478
▁ntutuiɛ	-9479
▁nworonn	-9480
▁papaapa	-9481
▁rabsake	-9482
▁sohwɛfo	-9483
▁wobekum	-9484
▁wobɛnya	-9485
▁wobɛwuo	-9486
▁wɔkyere	-9487
▁wɔremma	-9488
▁wɔtotoo	-9489
▁ɔpanyin	-9490
▁ɔsraani	-9491
▁蓋爾上帝耶和華	-9492
▁ahimelek	-9493
▁begyinaa	-9494
▁bɛkyeree	-9495
▁merennya	-9496
▁mmirekyi	-9497
▁momonoto	-9498
▁nkataano	-9499
▁wɔhyehyɛ	-9500
▁ɔnwomfoɔ	-9501
其列祖之上帝耶和華	-9502
▁ahuntasɛm	-9503
▁anɔpatutu	-9504
▁mmaninneɛ	-9505
▁ogyimifoɔ	-9506
▁afirinhyia	-9507
▁melkisedek	-9508
▁mmoahwɛfoɔ	-9509
▁nsuwansuwa	-9510
▁ɔdehunufoɔ	-9511
▁nebusaradan	-9512
▁asomdwoeɛsɛm	-9513
▁nworonnworan	-9514
▁wɔgyinagyina	-9515
▁sorɔnsorɔnbea	-9516
dm	-9517
os	-9518
▁半	-9519
▁家	-9520
▁念	-9521
▁憾	-9522
▁挪	-9523
▁携	-9524
▁暴	-9525
▁權	-9526
▁淫	-9527
▁禁	-9528
▁貫	-9529
▁賴	-9530
▁醫	-9531
▁鑄	-9532
▁陀	-9533
▁雨	-9534
▁頒	-9535
▁香	-9536
一次	-9537
七次	-9538
上升	-9539
上騰	-9540
不為	-9541
不當	-9542
之君	-9543
之寶	-9544
之屋	-9545
之愛	-9546
之書	-9547
之災	-9548
之詞	-9549
之餘	-9550
乖戾	-9551
二日	-9552
五萬	-9553
亞達	-9554
他施	-9555
令人	-9556
以水	-9557
以爾	-9558
以誓	-9559
作苦	-9560
偕寢	-9561
傷之	-9562
僕之	-9563
光明	-9564
入世	-9565
全身	-9566
共食	-9567
其聲	-9568
十一	-9569
卑微	-9570
及諸	-9571
受辱	-9572
哥亞	-9573
哥轄	-9574
四萬	-9575
回厥	-9576
坦業	-9577
基立	-9578
夜間	-9579
天象	-9580
妻之	-9581
娶者	-9582
子拿	-9583
守此	-9584
官長	-9585
定例	-9586
宰之	-9587
實提	-9588
尊崇	-9589
對岸	-9590
尼歌	-9591
己命	-9592
式食	-9593
式飲	-9594
彼所	-9595
從爾	-9596
忘我	-9597
愛我	-9598
憂甚	-9599
憶之	-9600
戚族	-9601
所傳	-9602
扶持	-9603
拯之	-9604
接我	-9605
斯人	-9606
於一	-9607
於中	-9608
於手	-9609
施濟	-9610
旁之	-9611
旅於	-9612
日之	-9613
是恃	-9614
書此	-9615
有三	-9616
有多	-9617
核之	-9618
構廬	-9619
樂輸	-9620
此時	-9621
歲生	-9622
比利	-9623
決不	-9624
沒藥	-9625
沙利	-9626
沙番	-9627
河西	-9628
海中	-9629
漰渤	-9630
為二	-9631
為室	-9632
無一	-9633
無言	-9634
熱中	-9635
爭競	-9636
爾口	-9637
爾當	-9638
爾足	-9639
牧羊	-9640
犢一	-9641
猶存	-9642
王子	-9643
班列	-9644
生育	-9645
疇昔	-9646
痛哭	-9647
登山	-9648
碎之	-9649
禁之	-9650
稱義	-9651
穀酒	-9652
答之	-9653
罪惡	-9654
罷特	-9655
者所	-9656
而投	-9657
而無	-9658
而獲	-9659
聖會	-9660
聞而	-9661
臨格	-9662
臨門	-9663
苦難	-9664
蒙首	-9665
衣以	-9666
見於	-9667
見王	-9668
角聲	-9669
諸物	-9670
豈非	-9671
貸金	-9672
資財	-9673
赦之	-9674
走獸	-9675
起之	-9676
邱墟	-9677
銅鐵	-9678
革順	-9679
bar	-9680
bet	-9681
dor	-9682
fua	-9683
had	-9684
oko	-9685
sas	-9686
tun	-9687
twi	-9688
tɔe	-9689
wae	-9690
▁ro	-9691
▁不但	-9692
▁不許	-9693
▁且於	-9694
▁主曰	-9695
▁亞薩	-9696
▁享壽	-9697
▁他人	-9698
▁以免	-9699
▁以拉	-9700
▁任其	-9701
▁其例	-9702
▁其式	-9703
▁其狀	-9704
▁其門	-9705
▁凡不	-9706
▁凡屬	-9707
▁列陳	-9708
▁則有	-9709
▁則知	-9710
▁則願	-9711
▁勿容	-9712
▁及旅	-9713
▁可拉	-9714
▁右手	-9715
▁吾主	-9716
▁四十	-9717
▁困苦	-9718
▁夜間	-9719
▁安然	-9720
▁富有	-9721
▁崇事	-9722
▁巴拉	-9723
▁後歷	-9724
▁得其	-9725
▁必因	-9726
▁惟其	-9727
▁我來	-9728
▁我悉	-9729
▁我手	-9730
▁或為	-9731
▁按手	-9732
▁揚聲	-9733
▁故曰	-9734
▁斯眾	-9735
▁有耳	-9736
▁毋懼	-9737
▁比拉	-9738
▁波斯	-9739
▁為民	-9740
▁烏薛	-9741
▁爾出	-9742
▁牛羊	-9743
▁王乃	-9744
▁生子	-9745
▁疫癘	-9746
▁盈以	-9747
▁素祭	-9748
▁維生	-9749
▁羅得	-9750
▁萬民	-9751
▁蓋人	-9752
▁蓋曰	-9753
▁變為	-9754
▁軍長	-9755
▁轉而	-9756
▁迨至	-9757
▁遵行	-9758
▁金甌	-9759
▁隨在	-9760
▁雖然	-9761
三百人	-9762
不信者	-9763
之兄弟	-9764
之室家	-9765
之而去	-9766
事他神	-9767
亞哈家	-9768
仆於刃	-9769
以斯拉	-9770
伏於地	-9771
六百人	-9772
其名數	-9773
基督者	-9774
孚尼子	-9775
安提阿	-9776
往埃及	-9777
拯救之	-9778
掃羅曰	-9779
撒拉旦	-9780
於其地	-9781
於眾前	-9782
歸其家	-9783
歸故土	-9784
死亡之	-9785
永久兮	-9786
爾名兮	-9787
爾所有	-9788
猶大地	-9789
瑪西雅	-9790
約雅敬	-9791
翦滅之	-9792
而取之	-9793
而言曰	-9794
耶洗別	-9795
蒙羞恥	-9796
谷中之	-9797
非尼哈	-9798
bata	-9799
duki	-9800
dɛfɛ	-9801
emia	-9802
fini	-9803
gail	-9804
liba	-9805
poma	-9806
riam	-9807
sere	-9808
tani	-9809
wila	-9810
yɛni	-9811
▁and	-9812
▁dui	-9813
▁egu	-9814
▁het	-9815
▁mil	-9816
▁otu	-9817
▁sia	-9818
▁tal	-9819
▁tra	-9820
▁tuo	-9821
▁tɔn	-9822
▁wɔt	-9823
▁ɔhu	-9824
▁ɔsi	-9825
▁亞拿突	-9826
▁以奉事	-9827
▁以精金	-9828
▁俄巴底	-9829
▁勿使我	-9830
▁千夫長	-9831
▁即上帝	-9832
▁司閽者	-9833
▁如經云	-9834
▁希勒家	-9835
▁我主歟	-9836
▁我儕若	-9837
▁我又見	-9838
▁我豈不	-9839
▁援我於	-9840
▁故我必	-9841
▁為其所	-9842
▁當以為	-9843
▁米書蘭	-9844
▁義者之	-9845
▁蓋爾曹	-9846
上帝之恩	-9847
之十字架	-9848
以色列諸	-9849
如是而行	-9850
子約拿單	-9851
為祭司者	-9852
祭司諸長	-9853
耶和華匱	-9854
耶和華必	-9855
耶和華諭	-9856
anten	-9857
emfam	-9858
gyaee	-9859
mafoɔ	-9860
piraa	-9861
safoɔ	-9862
sasta	-9863
suane	-9864
tanel	-9865
yɛnee	-9866
▁adar	-9867
▁amoa	-9868
▁arta	-9869
▁asua	-9870
▁atew	-9871
▁atow	-9872
▁bani	-9873
▁begu	-9874
▁beyi	-9875
▁dadu	-9876
▁dɔfo	-9877
▁hana	-9878
▁kann	-9879
▁koeɛ	-9880
▁kɔdi	-9881
▁kɔyɛ	-9882
▁meto	-9883
▁mpon	-9884
▁nnto	-9885
▁nnɔn	-9886
▁ntin	-9887
▁ntɛn	-9888
▁peka	-9889
▁peor	-9890
▁pepe	-9891
▁team	-9892
▁teko	-9893
▁toro	-9894
▁woam	-9895
▁wofa	-9896
▁wogu	-9897
▁yɛkɔ	-9898
▁ɔhem	-9899
▁ɔsɛn	-9900
▁ɔtɔn	-9901
▁其聽我言	-9902
▁因耶和華	-9903
▁在耶和華	-9904
▁永世靡暨	-9905
▁禍哉其人	-9906
▁耶和華既	-9907
▁耶和華藉	-9908
▁耶布斯人	-9909
▁能臨陳者	-9910
▁迦勒底人	-9911
二萬五千肘	-9912
孚尼子迦勒	-9913
導爾出埃及	-9914
尼布撒拉旦	-9915
甘子基大利	-9916
耶和華之名	-9917
耶和華室之	-9918
與𠵽唎㘔人	-9919
dukifo	-9920
gyinae	-9921
onwono	-9922
tafowa	-9923
untunu	-9924
▁abata	-9925
▁akode	-9926
▁anhwe	-9927
▁antia	-9928
▁apere	-9929
▁asɛde	-9930
▁barak	-9931
▁bɛfaa	-9932
▁bɛhye	-9933
▁bɛkae	-9934
▁dagon	-9935
▁denyɛ	-9936
▁efron	-9937
▁henok	-9938
▁huruu	-9939
▁kaseɛ	-9940
▁kehat	-9941
▁kukuo	-9942
▁kuntu	-9943
▁kɔyɛɛ	-9944
▁mebae	-9945
▁megye	-9946
▁metua	-9947
▁monam	-9948
▁monnn	-9949
▁mumfi	-9950
▁nhina	-9951
▁nkɔbɔ	-9952
▁nnawu	-9953
▁nnyan	-9954
▁obebu	-9955
▁ogyaa	-9956
▁onini	-9957
▁onnye	-9958
▁pasur	-9959
▁popoe	-9960
▁renkɔ	-9961
▁supɔw	-9962
▁turom	-9963
▁wasɛe	-9964
▁woayi	-9965
▁wofii	-9966
▁wɔkɔe	-9967
▁wɔrem	-9968
▁yɛmmɛ	-9969
▁ɔnhye	-9970
▁ɔpaee	-9971
▁ɔtwee	-9972
▁ɛbɛto	-9973
▁耶和華之神	-9974
▁雅各之上帝	-9975
以色列之上帝	-9976
以色列人之罪	-9977
nimfini	-9978
wintwam	-9979
▁ahodwo	-9980
▁akanea	-9981
▁akuraa	-9982
▁anania	-9983
▁ayɔnko	-9984
▁bɛwuwu	-9985
▁danfoɔ	-9986
▁eliesa	-9987
▁gersom	-9988
▁hermon	-9989
▁menyɛɛ	-9990
▁miriam	-9991
▁mmasuo	-9992
▁mpaemu	-9993
▁mubedi	-9994
▁munnue	-9995
▁mɛdane	-9996
▁mɛfiri	-9997
▁nantee	-9998
▁papayɛ	-9999
▁wobebu	-10000
▁wobuaa	-10001
▁wohyɛɛ	-10002
▁wonnya	-10003
▁woreyɛ	-10004
▁wɔamia	-10005
▁wɔanyɛ	-10006
▁wɔmmma	-10007
▁wɔreka	-10008
▁yiyedi	-10009
▁yɛbɛka	-10010
▁ɔbobɔɔ	-10011
▁ɔnsane	-10012
▁ɛrenyɛ	-10013
▁耶和華諭摩西	-10014
陷以色列人之罪	-10015
sunsuane	-10016
▁abigail	-10017
▁adammoa	-10018
▁adifire	-10019
▁animono	-10020
▁asennii	-10021
▁elisama	-10022
▁hasabia	-10023
▁mebisaa	-10024
▁nkotoku	-10025
▁oholiba	-10026
▁sukooko	-10027
▁wɔasane	-10028
▁wɔrenyɛ	-10029
▁wɔsɔree	-10030
▁yedutun	-10031
▁ɔbɛsane	-10032
▁ɔkraman	-10033
▁ɔsomfoɔ	-10034
sunsuanee	-10035
▁afɛfɛdeɛ	-10036
▁ahodwira	-10037
▁aniwudeɛ	-10038
▁kohatfoɔ	-10039
▁korakora	-10040
▁nneduafo	-10041
▁nsɛmmɔne	-10042
▁nyamesom	-10043
▁sadukifo	-10044
▁wɔtwerɛɛ	-10045
▁yerubaal	-10046
▁ɔbɛgyina	-10047
▁俱載於猶大列王紀	-10048
kronkronni	-10049
▁abankɛseɛ	-10050
▁abusuakuw	-10051
▁adwanefoɔ	-10052
▁afɔrebɔde	-10053
▁artasasta	-10054
▁asorɔkyeɛ	-10055
▁dɔnhwerew	-10056
▁mefiboset	-10057
▁nasaretni	-10058
▁nkyirimma	-10059
▁nokorɛdie	-10060
▁tenatenaa	-10061
▁wɔatwitwa	-10062
▁yɛrentumi	-10063
▁abooboodie	-10064
▁mfinimfini	-10065
▁nwononwono	-10066
▁persiahene	-10067
▁worehwehwɛ	-10068
▁adwumayɛfoɔ	-10069
▁ayeforokunu	-10070
▁kokurobetie	-10071
▁onipakumfoɔ	-10072
▁wɔtenatenaa	-10073
▁ɔkronkronni	-10074
▁akodeɛkurani	-10075
▁nnebɔneyɛfoɔ	-10076
▁云	-10077
▁假	-10078
▁土	-10079
▁壇	-10080
▁夕	-10081
▁奸	-10082
▁婢	-10083
▁射	-10084
▁忽	-10085
▁感	-10086
▁拜	-10087
▁灑	-10088
▁獅	-10089
▁祇	-10090
▁肇	-10091
▁護	-10092
▁變	-10093
▁輪	-10094
▁釁	-10095
▁閉	-10096
▁陷	-10097
▁飢	-10098
上有	-10099
世代	-10100
中為	-10101
中者	-10102
乃為	-10103
之兆	-10104
之恩	-10105
之牲	-10106
之犢	-10107
之軍	-10108
人血	-10109
伊施	-10110
休息	-10111
何在	-10112
佯為	-10113
來攻	-10114
俄斐	-10115
信也	-10116
俱備	-10117
僉曰	-10118
元始	-10119
內院	-10120
其境	-10121
其壇	-10122
其敵	-10123
其枝	-10124
凡有	-10125
切齒	-10126
前曰	-10127
勝數	-10128
勞者	-10129
及之	-10130
叛逆	-10131
和崙	-10132
哀歌	-10133
哀號	-10134
哈西	-10135
哲士	-10136
器械	-10137
回顧	-10138
堅定	-10139
士提	-10140
大海	-10141
奮臂	-10142
妄誕	-10143
守衛	-10144
宜乎	-10145
宣之	-10146
宣傳	-10147
害之	-10148
尋我	-10149
就而	-10150
巫覡	-10151
已久	-10152
希蘭	-10153
帷幕	-10154
常例	-10155
干犯	-10156
建造	-10157
引之	-10158
張幕	-10159
得業	-10160
得烈	-10161
從其	-10162
復在	-10163
復建	-10164
忒羅	-10165
恆忍	-10166
惜之	-10167
慎之	-10168
憾之	-10169
應許	-10170
懽忭	-10171
戀慕	-10172
成潔	-10173
我愛	-10174
我諸	-10175
我間	-10176
所以	-10177
拉篾	-10178
拯我	-10179
拿轄	-10180
振興	-10181
撒拔	-10182
擊我	-10183
教者	-10184
數日	-10185
斯子	-10186
於室	-10187
於磐	-10188
施行	-10189
旋返	-10190
旋風	-10191
日出	-10192
有餘	-10193
杜頓	-10194
果腹	-10195
業兮	-10196
歌珊	-10197
正者	-10198
此者	-10199
歸己	-10200
母胎	-10201
永約	-10202
求者	-10203
波斯	-10204
洗德	-10205
洞悉	-10206
灌奠	-10207
無數	-10208
營之	-10209
爾恩	-10210
爾聲	-10211
爾至	-10212
玷污	-10213
理之	-10214
瑪他	-10215
瑪吉	-10216
環我	-10217
用之	-10218
畏之	-10219
留於	-10220
當滅	-10221
癩者	-10222
目前	-10223
相從	-10224
相爭	-10225
眷聚	-10226
睚珥	-10227
秘奧	-10228
米亞	-10229
米甲	-10230
米羅	-10231
網羅	-10232
緘口	-10233
羊毛	-10234
者勿	-10235
而受	-10236
而造	-10237
肢體	-10238
胡底	-10239
至死	-10240
至爾	-10241
與酒	-10242
航海	-10243
荏弱	-10244
莫能	-10245
萬歲	-10246
薛西	-10247
衣之	-10248
衣服	-10249
西巴	-10250
覲王	-10251
言而	-10252
許我	-10253
詣之	-10254
諸言	-10255
謂我	-10256
謙遜	-10257
證之	-10258
議士	-10259
象牙	-10260
財物	-10261
責爾	-10262
起立	-10263
足前	-10264
述之	-10265
逃城	-10266
通國	-10267
通衢	-10268
過之	-10269
道途	-10270
遠我	-10271
鑄像	-10272
閽人	-10273
離乎	-10274
顚躓	-10275
餅一	-10276
驅逐	-10277
驕泰	-10278
骸骨	-10279
麥基	-10280
黑暗	-10281
afo	-10282
ben	-10283
bir	-10284
bun	-10285
fii	-10286
hud	-10287
hun	-10288
saf	-10289
tai	-10290
tɛw	-10291
ɛkɛ	-10292
▁or	-10293
▁不第	-10294
▁不食	-10295
▁且為	-10296
▁以手	-10297
▁以攻	-10298
▁以石	-10299
▁伏地	-10300
▁但我	-10301
▁使眾	-10302
▁俾眾	-10303
▁其民	-10304
▁出而	-10305
▁出自	-10306
▁則懼	-10307
▁勿使	-10308
▁即此	-10309
▁即自	-10310
▁去其	-10311
▁同於	-10312
▁哈曼	-10313
▁問曰	-10314
▁啦吡	-10315
▁如有	-10316
▁宜聽	-10317
▁強暴	-10318
▁彼於	-10319
▁彼為	-10320
▁彼皆	-10321
▁往見	-10322
▁後則	-10323
▁惟不	-10324
▁惟有	-10325
▁愚者	-10326
▁憐恤	-10327
▁我使	-10328
▁我望	-10329
▁我由	-10330
▁我祖	-10331
▁或在	-10332
▁按其	-10333
▁施行	-10334
▁是也	-10335
▁暗嫩	-10336
▁橄欖	-10337
▁此言	-10338
▁永久	-10339
▁沙番	-10340
▁焚其	-10341
▁爾子	-10342
▁由是	-10343
▁當告	-10344
▁當為	-10345
▁眾人	-10346
▁瞽者	-10347
▁示瑪	-10348
▁而加	-10349
▁而後	-10350
▁胡為	-10351
▁舉目	-10352
▁蒙其	-10353
▁行鞫	-10354
▁見有	-10355
▁誰為	-10356
▁豈可	-10357
▁遂有	-10358
▁遂謂	-10359
▁銀盂	-10360
▁銀盤	-10361
▁錫以	-10362
▁陰府	-10363
主之僕	-10364
之以金	-10365
之而出	-10366
伯示麥	-10367
其門徒	-10368
列邦之	-10369
利乏音	-10370
利亞子	-10371
告民曰	-10372
士提反	-10373
子亞哈	-10374
子約蘭	-10375
實基倫	-10376
得救也	-10377
拉撒路	-10378
拯救兮	-10379
拿基立	-10380
於他神	-10381
於地上	-10382
於地極	-10383
於民中	-10384
於爾之	-10385
書與爾	-10386
歸於我	-10387
流人血	-10388
為我所	-10389
爾為業	-10390
爾言兮	-10391
百合花	-10392
相語曰	-10393
義人之	-10394
而居之	-10395
而誓曰	-10396
而預言	-10397
聞之矣	-10398
聞其言	-10399
至聖所	-10400
裂其衣	-10401
補過祭	-10402
諸兄弟	-10403
謳歌者	-10404
迦伯農	-10405
amek	-10406
anim	-10407
duam	-10408
dɔkɔ	-10409
fefɛ	-10410
kete	-10411
koro	-10412
kuku	-10413
pare	-10414
rebe	-10415
toaa	-10416
wiaa	-10417
ɔnom	-10418
▁gog	-10419
▁mim	-10420
▁ode	-10421
▁sif	-10422
▁sow	-10423
▁wee	-10424
▁wɔd	-10425
▁yak	-10426
▁亞比雅	-10427
▁以他瑪	-10428
▁以斯拉	-10429
▁全能者	-10430
▁即爾所	-10431
▁希伯倫	-10432
▁希未人	-10433
▁惟爾曹	-10434
▁我上帝	-10435
▁我儕既	-10436
▁我列祖	-10437
▁我必罰	-10438
▁摩押人	-10439
▁波阿斯	-10440
▁盈以香	-10441
▁耶穌謂	-10442
▁請容我	-10443
一肘有半	-10444
利巴嫩之	-10445
哈拿尼雅	-10446
獲罪於爾	-10447
耶路巴力	-10448
補過之祭	-10449
麵一伊法	-10450
anteɛ	-10451
hwiee	-10452
kelon	-10453
ltiel	-10454
mufoɔ	-10455
onini	-10456
tasee	-10457
▁afom	-10458
▁akuo	-10459
▁anhu	-10460
▁ansi	-10461
▁antu	-10462
▁antɔ	-10463
▁beae	-10464
▁bela	-10465
▁bewu	-10466
▁bɛsu	-10467
▁eduu	-10468
▁kaee	-10469
▁kuru	-10470
▁kɛkɛ	-10471
▁mane	-10472
▁meyi	-10473
▁mmmɛ	-10474
▁mɛte	-10475
▁nsɔe	-10476
▁ntom	-10477
▁raba	-10478
▁refi	-10479
▁sana	-10480
▁soaa	-10481
▁tera	-10482
▁wamm	-10483
▁yair	-10484
▁ɔbra	-10485
▁ɔkɔe	-10486
▁ɔsaa	-10487
▁ɛbɔɔ	-10488
▁ɛhaw	-10489
▁一歲之羔	-10490
▁以利加拿	-10491
▁以為搖祭	-10492
▁依其名數	-10493
▁我將使爾	-10494
▁耶和華已	-10495
▁耶和華論	-10496
▁越至三日	-10497
為耶和華所	-10498
猶太人之王	-10499
獻牡山羊一	-10500
dalene	-10501
dwenee	-10502
frafoɔ	-10503
kariot	-10504
kɔdɔkɔ	-10505
sɛefoɔ	-10506
twafoɔ	-10507
▁adeda	-10508
▁adefo	-10509
▁adesa	-10510
▁afuom	-10511
▁akeka	-10512
▁akusa	-10513
▁akɔka	-10514
▁amasa	-10515
▁ammua	-10516
▁anene	-10517
▁atant	-10518
▁beduu	-10519
▁bisae	-10520
▁debir	-10521
▁dware	-10522
▁gesur	-10523
▁gyefo	-10524
▁hamor	-10525
▁hasar	-10526
▁husai	-10527
▁karea	-10528
▁lamek	-10529
▁maboa	-10530
▁mahli	-10531
▁mohyɛ	-10532
▁mompɛ	-10533
▁mosom	-10534
▁munhu	-10535
▁mɛsɛe	-10536
▁nkoko	-10537
▁nkosi	-10538
▁nkwan	-10539
▁nkɔdi	-10540
▁nkɔka	-10541
▁nnanu	-10542
▁nnuan	-10543
▁nnwam	-10544
▁nnyaa	-10545
▁nwono	-10546
▁obobe	-10547
▁okris	-10548
▁pamee	-10549
▁rahab	-10550
▁tetew	-10551
▁wammu	-10552
▁woabu	-10553
▁woann	-10554
▁woapa	-10555
▁wotuu	-10556
▁wɔasɔ	-10557
▁wɔhwe	-10558
▁wɔnya	-10559
▁wɔtow	-10560
▁yaser	-10561
▁yeraw	-10562
▁yɛfoɔ	-10563
▁yɛnka	-10564
▁ɔdane	-10565
▁ɔkora	-10566
▁ɔkorɔ	-10567
▁ɔmane	-10568
▁ɔmmoa	-10569
▁ɔnnom	-10570
▁ɔnyɛɛ	-10571
▁ɔsene	-10572
▁ɔtwaa	-10573
▁ɛbɛso	-10574
▁ɛrekɔ	-10575
▁ɛsisi	-10576
▁凡有血氣者	-10577
▁導爾出埃及	-10578
▁為以色列族	-10579
▁重十舍客勒	-10580
以色列之聖者	-10581
伊法十分之一	-10582
獲罪於耶和華	-10583
duampɔn	-10584
sakyera	-10585
tenkete	-10586
torɔtɔɔ	-10587
▁abuada	-10588
▁adapaa	-10589
▁agripa	-10590
▁ahitub	-10591
▁andrea	-10592
▁anikan	-10593
▁bebisa	-10594
▁bɛhyɛɛ	-10595
▁dunson	-10596
▁hohoro	-10597
▁kwasea	-10598
▁kɔhyɛɛ	-10599
▁matena	-10600
▁mehwɛɛ	-10601
▁mesɔre	-10602
▁meyɛeɛ	-10603
▁mmɛnta	-10604
▁moamfa	-10605
▁moanyɛ	-10606
▁momfrɛ	-10607
▁morekɔ	-10608
▁moreyɛ	-10609
▁mɛbisa	-10610
▁ngusoɔ	-10611
▁nhahan	-10612
▁nkyere	-10613
▁nsabuo	-10614
▁ntwene	-10615
▁ofitii	-10616
▁owifoɔ	-10617
▁pepeaa	-10618
▁redidi	-10619
▁retwam	-10620
▁tenten	-10621
▁tinhwi	-10622
▁twerɛɛ	-10623
▁wubehu	-10624
▁wɔnnye	-10625
▁wɔnsoa	-10626
▁wɔsoso	-10627
▁wɔtane	-10628
▁ɔbabaa	-10629
▁ɔnhunu	-10630
▁ɔpanin	-10631
▁ɔrewuo	-10632
▁ɔsiane	-10633
▁ɛmpare	-10634
▁ɛremma	-10635
▁故主耶和華曰	-10636
爾上帝耶和華之	-10637
hempanin	-10638
twentwɛn	-10639
▁ahokeka	-10640
▁annyina	-10641
▁apontoɔ	-10642
▁askelon	-10643
▁bebrebe	-10644
▁bɛdɔɔso	-10645
▁isboset	-10646
▁kununom	-10647
▁kɔgyina	-10648
▁merenni	-10649
▁monnane	-10650
▁nnawuro	-10651
▁nsiesie	-10652
▁nsuyire	-10653
▁ntaayaa	-10654
▁susuwii	-10655
▁turodoo	-10656
▁wakyerɛ	-10657
▁wohunuu	-10658
▁wosomaa	-10659
▁wosusuw	-10660
▁wɔahwie	-10661
▁wɔatotɔ	-10662
▁wɔhyɛne	-10663
▁wɔkyerɛ	-10664
▁wɔrenni	-10665
▁yebenya	-10666
▁yɛahunu	-10667
▁yɛremfa	-10668
▁ɔnantee	-10669
▁ɔsɛefoɔ	-10670
▁以色列之上帝云	-10671
▁abinadab	-10672
▁aboɔpono	-10673
▁abɔntene	-10674
▁ahankron	-10675
▁ahenkyɛw	-10676
▁ahokyere	-10677
▁ahokyerɛ	-10678
▁akunafoɔ	-10679
▁aminadab	-10680
▁apinisie	-10681
▁asraafoɔ	-10682
▁hintidua	-10683
▁iskariot	-10684
▁mmerɛboɔ	-10685
▁mobɛhunu	-10686
▁nokwafoɔ	-10687
▁nsakyera	-10688
▁rehwehwɛ	-10689
▁wubetumi	-10690
▁wɔbɛsane	-10691
▁wɔkyerɛɛ	-10692
▁ɔbaabunu	-10693
▁爾則知我乃耶和華	-10694
▁ahanwɔtwe	-10695
▁ahodwirie	-10696
▁apɔnkɔfoɔ	-10697
▁atwerɛfoɔ	-10698
▁magdalene	-10699
▁mmorɔnoma	-10700
▁nyinsɛnee	-10701
▁okristoni	-10702
▁tɔtorɔtɔɔ	-10703
▁worentumi	-10704
▁asukɔtweaa	-10705
▁atantanneɛ	-10706
▁atirimɔden	-10707
▁nketenkete	-10708
▁nyaatwomfo	-10709
▁wɔkurakura	-10710
▁aduhwamhyeɛ	-10711
▁gyinagyinaa	-10712
▁tweaduampɔn	-10713
▁wɔkyekyeree	-10714
▁冀	-10715
▁冠	-10716
▁初	-10717
▁勢	-10718
▁含	-10719
▁售	-10720
▁展	-10721
▁幾	-10722
▁度	-10723
▁廊	-10724
▁惰	-10725
▁憂	-10726
▁擇	-10727
▁敗	-10728
▁敬	-10729
▁本	-10730
▁樹	-10731
▁精	-10732
▁肉	-10733
▁臥	-10734
▁藏	-10735
▁識	-10736
▁轄	-10737
▁迎	-10738
▁述	-10739
▁運	-10740
▁都	-10741
▁錄	-10742
▁音	-10743
一也	-10744
不受	-10745
不堪	-10746
不飲	-10747
中所	-10748
主也	-10749
主曰	-10750
主者	-10751
乃由	-10752
乃真	-10753
之位	-10754
之口	-10755
之始	-10756
之意	-10757
之獸	-10758
乖謬	-10759
乘之	-10760
九百	-10761
二肘	-10762
亞米	-10763
人多	-10764
以告	-10765
何意	-10766
侍立	-10767
供事	-10768
偕亡	-10769
傾耳	-10770
元年	-10771
入營	-10772
內室	-10773
其往	-10774
其眾	-10775
利暗	-10776
利甲	-10777
制之	-10778
勇力	-10779
勸爾	-10780
厥污	-10781
各州	-10782
吉多	-10783
同坐	-10784
同寢	-10785
同心	-10786
同於	-10787
命之	-10788
嘉物	-10789
嘟𡀲	-10790
四肘	-10791
因之	-10792
圍之	-10793
基大	-10794
基尼	-10795
夏甲	-10796
大會	-10797
奇行	-10798
奉遣	-10799
奪之	-10800
女子	-10801
姦淫	-10802
孩童	-10803
定之	-10804
宦豎	-10805
害爾	-10806
容之	-10807
容光	-10808
小驢	-10809
屬邑	-10810
巡撫	-10811
延年	-10812
律書	-10813
律者	-10814
得醫	-10815
必得	-10816
必見	-10817
忍耐	-10818
忘其	-10819
忘爾	-10820
念我	-10821
怒而	-10822
悅爾	-10823
情人	-10824
惡報	-10825
愚者	-10826
愧恥	-10827
慘怛	-10828
我不	-10829
我口	-10830
我如	-10831
所遣	-10832
所附	-10833
揚帆	-10834
播者	-10835
教之	-10836
敵之	-10837
敵兮	-10838
於石	-10839
旅人	-10840
既屆	-10841
昂首	-10842
時日	-10843
書之	-10844
書達	-10845
有十	-10846
有智	-10847
望之	-10848
松木	-10849
歌曰	-10850
此乎	-10851
此也	-10852
此室	-10853
民前	-10854
民間	-10855
水泉	-10856
波羅	-10857
洶湧	-10858
浸禮	-10859
消亡	-10860
清潔	-10861
滅爾	-10862
滅絕	-10863
潛伏	-10864
濟河	-10865
為奴	-10866
為子	-10867
為民	-10868
燃燈	-10869
營中	-10870
爾必	-10871
爾與	-10872
爾若	-10873
物產	-10874
獺皮	-10875
產業	-10876
由其	-10877
癱瘋	-10878
盡心	-10879
知者	-10880
祝之	-10881
禾稼	-10882
秉權	-10883
窒礙	-10884
窪地	-10885
米煞	-10886
約帕	-10887
納貢	-10888
索之	-10889
縲絏	-10890
羅罕	-10891
羅非	-10892
美好	-10893
義之	-10894
義也	-10895
者皆	-10896
而信	-10897
而致	-10898
而觀	-10899
而飲	-10900
耕種	-10901
能之	-10902
自相	-10903
與油	-10904
若火	-10905
萊雅	-10906
萌芽	-10907
蒞臨	-10908
薙髮	-10909
處於	-10910
號哭	-10911
蝗蟲	-10912
行事	-10913
裂衣	-10914
見憶	-10915
觀其	-10916
言誑	-10917
訟之	-10918
試之	-10919
諭之	-10920
諸工	-10921
諸木	-10922
謹慎	-10923
谷之	-10924
豐盛	-10925
負重	-10926
赤子	-10927
踐之	-10928
車馬	-10929
轉身	-10930
迄今	-10931
逃避	-10932
造之	-10933
違爾	-10934
違逆	-10935
酵節	-10936
門前	-10937
附之	-10938
降詔	-10939
降雨	-10940
陰翳	-10941
隱語	-10942
靈也	-10943
預示	-10944
飲水	-10945
dar	-10946
dim	-10947
dɛw	-10948
hum	-10949
moɔ	-10950
peɛ	-10951
pii	-10952
pro	-10953
ɛwa	-10954
▁lu	-10955
▁ri	-10956
▁一千	-10957
▁一在	-10958
▁下至	-10959
▁不如	-10960
▁且我	-10961
▁乃爾	-10962
▁亞達	-10963
▁亦以	-10964
▁今可	-10965
▁今已	-10966
▁他施	-10967
▁以備	-10968
▁以得	-10969
▁以應	-10970
▁伊於	-10971
▁伊施	-10972
▁何所	-10973
▁使彼	-10974
▁偕我	-10975
▁其有	-10976
▁凡捫	-10977
▁出於	-10978
▁列王	-10979
▁則將	-10980
▁則謂	-10981
▁勇士	-10982
▁及厥	-10983
▁可往	-10984
▁向我	-10985
▁吞噬	-10986
▁基拉	-10987
▁如何	-10988
▁如獻	-10989
▁將為	-10990
▁將見	-10991
▁小子	-10992
▁居民	-10993
▁希幔	-10994
▁彼與	-10995
▁待其	-10996
▁得以	-10997
▁必將	-10998
▁必復	-10999
▁必成	-11000
▁必見	-11001
▁恐爾	-11002
▁我日	-11003
▁我有	-11004
▁我靈	-11005
▁或人	-11006
▁拉瑪	-11007
▁斯亦	-11008
▁族長	-11009
▁昆弟	-11010
▁月朔	-11011
▁此諸	-11012
▁每歲	-11013
▁沙龍	-11014
▁無非	-11015
▁然彼	-11016
▁爾及	-11017
▁爾尚	-11018
▁爾居	-11019
▁爾眾	-11020
▁男女	-11021
▁禁食	-11022
▁給以	-11023
▁綿羊	-11024
▁緣其	-11025
▁而己	-11026
▁而返	-11027
▁至三	-11028
▁致可	-11029
▁致彼	-11030
▁藏於	-11031
▁西拉	-11032
▁貧者	-11033
▁追襲	-11034
▁邑中	-11035
▁長老	-11036
▁非因	-11037
▁願王	-11038
▁飛鳥	-11039
▁騎兵	-11040
上帝乎	-11041
上帝匱	-11042
不義之	-11043
中之鳥	-11044
之保障	-11045
之支派	-11046
之族長	-11047
之為聖	-11048
亞倫曰	-11049
亞衲族	-11050
亦若是	-11051
供事之	-11052
侮慢者	-11053
信上帝	-11054
其所許	-11055
其故土	-11056
其生命	-11057
十有二	-11058
向上帝	-11059
告爾曰	-11060
因之而	-11061
天上之	-11062
子亞瑪	-11063
就之曰	-11064
從我言	-11065
憾我者	-11066
我所諭	-11067
所獻之	-11068
所遺者	-11069
擊斃之	-11070
於巴力	-11071
於彼者	-11072
核其數	-11073
歸於爾	-11074
為基督	-11075
為爾僕	-11076
爾之信	-11077
異象中	-11078
目睹之	-11079
罪而死	-11080
者之心	-11081
而攻之	-11082
而生者	-11083
與不潔	-11084
與爾言	-11085
與祭司	-11086
蒙悅納	-11087
蒙赦宥	-11088
西乃野	-11089
西珥山	-11090
遣使見	-11091
diiɛ	-11092
elio	-11093
gido	-11094
hiaa	-11095
huri	-11096
hwim	-11097
seba	-11098
toso	-11099
tɔre	-11100
yere	-11101
▁aga	-11102
▁bas	-11103
▁dis	-11104
▁dɔɔ	-11105
▁etu	-11106
▁ido	-11107
▁mak	-11108
▁nnn	-11109
▁rem	-11110
▁rib	-11111
▁rut	-11112
▁sab	-11113
▁ɛgu	-11114
▁上帝曰	-11115
▁以斯哈	-11116
▁伊利亞	-11117
▁伯特利	-11118
▁便哈達	-11119
▁凡爾所	-11120
▁原文作	-11121
▁大利烏	-11122
▁巴拿巴	-11123
▁希實本	-11124
▁希斯崙	-11125
▁彼為我	-11126
▁必受詛	-11127
▁惟耶穌	-11128
▁我必降	-11129
▁拿俄米	-11130
▁然我儕	-11131
▁爾不能	-11132
▁爾何為	-11133
▁示瑪雅	-11134
▁而不之	-11135
▁而不得	-11136
▁越三日	-11137
▁金甌一	-11138
一萬二千	-11139
上帝之室	-11140
主耶和華	-11141
亞伯尼歌	-11142
俄別以東	-11143
后以斯帖	-11144
壽高年邁	-11145
大聲而呼	-11146
奴隸之室	-11147
寄名之所	-11148
懷妊生子	-11149
摩西所命	-11150
斯土之民	-11151
於安息日	-11152
為其上帝	-11153
祭司之職	-11154
祭司撒督	-11155
絕於民中	-11156
臨產之婦	-11157
視為善者	-11158
酬恩之祭	-11159
錫嘏於爾	-11160
非利士地	-11161
akɛse	-11162
anaim	-11163
butuw	-11164
dodoɔ	-11165
gyent	-11166
hanan	-11167
herib	-11168
hodwo	-11169
nelio	-11170
paemu	-11171
▁asum	-11172
▁bɛku	-11173
▁bɛwo	-11174
▁dade	-11175
▁dwen	-11176
▁dɔre	-11177
▁dɔte	-11178
▁ebed	-11179
▁fira	-11180
▁fraa	-11181
▁kuna	-11182
▁kyen	-11183
▁mabu	-11184
▁masɔ	-11185
▁mebu	-11186
▁nyɛɛ	-11187
▁paee	-11188
▁papo	-11189
▁resu	-11190
▁selo	-11191
▁sora	-11192
▁sɛso	-11193
▁tito	-11194
▁trɛɛ	-11195
▁wɔgu	-11196
▁wɔpo	-11197
▁yiyi	-11198
▁ɔbae	-11199
▁ɔfom	-11200
▁ɔham	-11201
▁ɔkan	-11202
▁ɔtɔɔ	-11203
▁ɛmma	-11204
▁ɛsɛe	-11205
▁三分之一	-11206
▁亞爸拉罕	-11207
▁伊於胡底	-11208
▁大聲呼曰	-11209
▁宜頌美焉	-11210
▁我之上帝	-11211
▁撒迦利雅	-11212
▁斯亦虛空	-11213
▁斯土之民	-11214
▁爾之慈惠	-11215
▁祭司察之	-11216
▁耶和華不	-11217
▁耶和華亦	-11218
▁自東至西	-11219
▁西門彼得	-11220
七十舍客勒	-11221
子以利亞撒	-11222
為耶和華之	-11223
duuduu	-11224
dwofoɔ	-11225
kyɛmma	-11226
weaseɛ	-11227
yerɛne	-11228
▁aborɔ	-11229
▁adɔna	-11230
▁ahoma	-11231
▁akyen	-11232
▁akɔdi	-11233
▁akɔko	-11234
▁akɔma	-11235
▁akɔne	-11236
▁antwe	-11237
▁apuei	-11238
▁beria	-11239
▁boroo	-11240
▁bɛtoo	-11241
▁dedan	-11242
▁hefer	-11243
▁homer	-11244
▁howee	-11245
▁hɔnom	-11246
▁kedar	-11247
▁kipro	-11248
▁kohuu	-11249
▁matie	-11250
▁mesan	-11251
▁mforo	-11252
▁moyɛɛ	-11253
▁mpire	-11254
▁nenam	-11255
▁nkɔso	-11256
▁paran	-11257
▁penee	-11258
▁rehob	-11259
▁rentɔ	-11260
▁ribla	-11261
▁teteɛ	-11262
▁tonto	-11263
▁twene	-11264
▁woafa	-11265
▁wompɛ	-11266
▁wosow	-11267
▁wotee	-11268
▁wɔapo	-11269
▁wɔguu	-11270
▁wɔsɔw	-11271
▁yaree	-11272
▁ɔbisa	-11273
▁ɔbɛwu	-11274
▁ɔhyew	-11275
▁ɔpeha	-11276
▁ɔredi	-11277
▁ɛbɛkɔ	-11278
▁ɛdeda	-11279
▁ɛreyɛ	-11280
▁以色列會眾	-11281
▁大衛與從者	-11282
▁耶和華為我	-11283
▁耶路撒冷歟	-11284
拿撒勒人耶穌	-11285
行耶和華所悅	-11286
krankyi	-11287
kyerɛne	-11288
rimanom	-11289
▁adwiri	-11290
▁adɔfoɔ	-11291
▁ahosan	-11292
▁akamfo	-11293
▁akuafo	-11294
▁amonni	-11295
▁ampene	-11296
▁anidie	-11297
▁antena	-11298
▁apakye	-11299
▁asanku	-11300
▁asieeɛ	-11301
▁asonse	-11302
▁atɛkyɛ	-11303
▁baraba	-11304
▁duruiɛ	-11305
▁gehasi	-11306
▁hyehye	-11307
▁kyekyɛ	-11308
▁kɔtena	-11309
▁masoma	-11310
▁matumi	-11311
▁megido	-11312
▁minnya	-11313
▁misuro	-11314
▁mohunu	-11315
▁monnie	-11316
▁mpraeɛ	-11317
▁mpɛɛwa	-11318
▁mɛhunu	-11319
▁mɛsane	-11320
▁nkɔmmɔ	-11321
▁nsɔano	-11322
▁nteamu	-11323
▁osukɔm	-11324
▁owufoɔ	-11325
▁refiri	-11326
▁rekɔyɛ	-11327
▁somafo	-11328
▁sumina	-11329
▁wafiri	-11330
▁woamfa	-11331
▁woanka	-11332
▁woanni	-11333
▁woanyɛ	-11334
▁wobɛkɔ	-11335
▁wɔasie	-11336
▁wɔkaeɛ	-11337
▁wɔnkyɛ	-11338
▁wɔnsɛe	-11339
▁wɔpaee	-11340
▁wɔpamm	-11341
▁wɔrepɛ	-11342
▁wɔsoaa	-11343
▁yedaia	-11344
▁yehiel	-11345
▁yɛbɛkɔ	-11346
▁yɛrebɛ	-11347
▁其聽耶和華言	-11348
▁耶和華之榮光	-11349
▁耶和華諭之曰	-11350
▁耶路撒冷居民	-11351
一百三十舍客勒	-11352
dwinnwen	-11353
▁ahoahoa	-11354
▁ahofadi	-11355
▁ahopopo	-11356
▁ahotefo	-11357
▁ahoyera	-11358
▁apaadeɛ	-11359
▁asotire	-11360
▁asutene	-11361
▁ayaresa	-11362
▁betania	-11363
▁biribie	-11364
▁bɛkotow	-11365
▁dwontoɔ	-11366
▁dwumadi	-11367
▁ebetumi	-11368
▁eliakim	-11369
▁gyegyeɛ	-11370
▁homebea	-11371
▁hwerɛma	-11372
▁hyehyee	-11373
▁mabɛtwe	-11374
▁metenaa	-11375
▁mfutuma	-11376
▁moatumi	-11377
▁mpemnan	-11378
▁mpintin	-11379
▁nkariiɛ	-11380
▁nkyerɛɛ	-11381
▁nsankuo	-11382
▁ntampeɛ	-11383
▁ntintan	-11384
▁ntokuro	-11385
▁remalia	-11386
▁salmuna	-11387
▁wɔasoma	-11388
▁wɔawuwu	-11389
▁wɔnsane	-11390
▁wɔsisii	-11391
▁ɔbɛdane	-11392
▁ɔhoɔden	-11393
▁ɛbɛtena	-11394
▁ɛhyerɛn	-11395
muɔdenfoɔ	-11396
▁adedodoɔ	-11397
▁akwansra	-11398
▁awuranom	-11399
▁ayɔnkofa	-11400
▁dwennini	-11401
▁gyinabea	-11402
▁israelni	-11403
▁kornelio	-11404
▁matwitwa	-11405
▁mpemnson	-11406
▁mpokyerɛ	-11407
▁nhyerɛne	-11408
▁nteɛteɛm	-11409
▁sekemfoɔ	-11410
▁sukraman	-11411
▁suntidua	-11412
▁wobɛsane	-11413
▁wɔadwane	-11414
▁wɔahyira	-11415
▁wɔnkyere	-11416
▁ɔdanseni	-11417
▁ɔsiesiee	-11418
▁耶和華諭約書亞曰	-11419
▁adanedane	-11420
▁anisoadeɛ	-11421
▁anyankuku	-11422
▁gileadfoɔ	-11423
▁mmaransɛm	-11424
▁mmotafowa	-11425
▁mmusuakuw	-11426
▁nankoroma	-11427
▁nkuranhyɛ	-11428
▁nkwaseafo	-11429
▁sanaherib	-11430
▁wɔahyehyɛ	-11431
▁wɔnhwehwɛ	-11432
▁yesreelni	-11433
▁ɔtemmufoɔ	-11434
▁akɛseakɛse	-11435
▁anifirafoɔ	-11436
▁oguanhwɛfo	-11437
▁agyinatufoɔ	-11438
▁mponkyerɛne	-11439
▁nkyɛnkyɛmma	-11440
▁wobisabisaa	-11441
▁wɔadanedane	-11442
▁wɔakyekyere	-11443
▁nantwiburuwa	-11444
▁safohempanin	-11445
▁亭	-11446
▁八	-11447
▁刦	-11448
▁吞	-11449
▁塗	-11450
▁委	-11451
▁巨	-11452
▁平	-11453
▁形	-11454
▁思	-11455
▁懼	-11456
▁抵	-11457
▁抹	-11458
▁拾	-11459
▁掩	-11460
▁末	-11461
▁滿	-11462
▁牽	-11463
▁甲	-11464
▁究	-11465
▁籲	-11466
▁蔽	-11467
▁血	-11468
▁貧	-11469
▁送	-11470
▁饋	-11471
▁默	-11472
一區	-11473
三萬	-11474
下至	-11475
不出	-11476
不法	-11477
不與	-11478
不許	-11479
之將	-11480
之橡	-11481
之爐	-11482
之穴	-11483
之若	-11484
之製	-11485
事者	-11486
五日	-11487
五月	-11488
令我	-11489
以居	-11490
以後	-11491
以新	-11492
以行	-11493
伏地	-11494
何珥	-11495
來自	-11496
信爾	-11497
光之	-11498
入覲	-11499
入邑	-11500
內殿	-11501
全國	-11502
六人	-11503
其二	-11504
其價	-11505
其夫	-11506
其日	-11507
其權	-11508
其王	-11509
其處	-11510
其途	-11511
其鄰	-11512
凡七	-11513
分蹄	-11514
判司	-11515
則為	-11516
勞苦	-11517
勿食	-11518
匪徒	-11519
博士	-11520
去其	-11521
及羔	-11522
古昔	-11523
召爾	-11524
告王	-11525
哈蘭	-11526
哲人	-11527
善矣	-11528
囁議	-11529
因此	-11530
在山	-11531
在野	-11532
坎阱	-11533
垣墉	-11534
多尼	-11535
大拉	-11536
奉之	-11537
如之	-11538
如爾	-11539
子者	-11540
寂寞	-11541
密雲	-11542
寰宇	-11543
將見	-11544
尋之	-11545
小子	-11546
居其	-11547
島嶼	-11548
巖穴	-11549
已畢	-11550
巴旦	-11551
幔利	-11552
座前	-11553
弒之	-11554
弗拉	-11555
強厥	-11556
強大	-11557
彼眾	-11558
律兮	-11559
徒勞	-11560
得撒	-11561
復返	-11562
怒甚	-11563
惟爾	-11564
戍卒	-11565
戍樓	-11566
我前	-11567
我往	-11568
戚屬	-11569
戰爭	-11570
所予	-11571
所立	-11572
扶之	-11573
抑鬱	-11574
拉密	-11575
拯爾	-11576
提拉	-11577
文士	-11578
斯族	-11579
斯眾	-11580
於城	-11581
於靈	-11582
旱乾	-11583
明晨	-11584
有七	-11585
未之	-11586
束麻	-11587
欣嫩	-11588
欲往	-11589
歌珥	-11590
歎息	-11591
步卒	-11592
毀壞	-11593
污穢	-11594
決志	-11595
決意	-11596
沙瑪	-11597
治爾	-11598
法他	-11599
波濤	-11600
注意	-11601
溪濱	-11602
漸長	-11603
火中	-11604
災禍	-11605
為僕	-11606
為火	-11607
無力	-11608
無可	-11609
無業	-11610
爭鬥	-11611
爾云	-11612
爾而	-11613
牛驢	-11614
牧之	-11615
王前	-11616
瑪拉	-11617
田間	-11618
由信	-11619
磯倫	-11620
示每	-11621
祝謝	-11622
禍矣	-11623
禱告	-11624
答曰	-11625
約乃	-11626
者中	-11627
者多	-11628
而守	-11629
而殺	-11630
而獻	-11631
肝網	-11632
背我	-11633
能以	-11634
膝草	-11635
自北	-11636
自幼	-11637
至終	-11638
舒蕊	-11639
若獅	-11640
草芥	-11641
萬世	-11642
衝突	-11643
衷懷	-11644
西卜	-11645
見棄	-11646
見義	-11647
見起	-11648
覿面	-11649
記誌	-11650
設筵	-11651
詭計	-11652
誇者	-11653
誘之	-11654
誰耶	-11655
諸州	-11656
護軍	-11657
讀之	-11658
負荷	-11659
赦矣	-11660
足矣	-11661
路得	-11662
身之	-11663
辟拉	-11664
迫我	-11665
追憶	-11666
遍地	-11667
邪僻	-11668
銀一	-11669
降於	-11670
院中	-11671
陳設	-11672
隕亡	-11673
雛鴿	-11674
預定	-11675
頹敗	-11676
顯現	-11677
風飄	-11678
餱糧	-11679
鳲鳩	-11680
黃金	-11681
黑門	-11682
bab	-11683
bni	-11684
deo	-11685
haa	-11686
lot	-11687
mea	-11688
mon	-11689
nea	-11690
nwi	-11691
sei	-11692
sem	-11693
twɛ	-11694
wet	-11695
▁ed	-11696
▁er	-11697
▁不敢	-11698
▁且爾	-11699
▁乃依	-11700
▁乃屬	-11701
▁乃往	-11702
▁乃指	-11703
▁五十	-11704
▁亞吉	-11705
▁以治	-11706
▁以行	-11707
▁以言	-11708
▁以贖	-11709
▁伸手	-11710
▁何由	-11711
▁側耳	-11712
▁僉曰	-11713
▁入於	-11714
▁入爾	-11715
▁公義	-11716
▁其僕	-11717
▁其力	-11718
▁其家	-11719
▁其色	-11720
▁其行	-11721
▁又云	-11722
▁取爾	-11723
▁向之	-11724
▁哈馬	-11725
▁因而	-11726
▁在田	-11727
▁地震	-11728
▁境內	-11729
▁奚為	-11730
▁如不	-11731
▁如王	-11732
▁尋求	-11733
▁導之	-11734
▁尚未	-11735
▁尼哥	-11736
▁巴尼	-11737
▁底但	-11738
▁彼即	-11739
▁彼已	-11740
▁彼等	-11741
▁得毋	-11742
▁心利	-11743
▁必死	-11744
▁必獻	-11745
▁必被	-11746
▁惟在	-11747
▁惟於	-11748
▁意欲	-11749
▁所得	-11750
▁既出	-11751
▁既已	-11752
▁暗蘭	-11753
▁此在	-11754
▁此地	-11755
▁此室	-11756
▁殺戮	-11757
▁毀滅	-11758
▁毀爾	-11759
▁波濤	-11760
▁焚燬	-11761
▁爾悉	-11762
▁爾母	-11763
▁爾猶	-11764
▁爾素	-11765
▁爾雖	-11766
▁牛二	-11767
▁瑪代	-11768
▁瑪迦	-11769
▁當其	-11770
▁當取	-11771
▁眾乃	-11772
▁知其	-11773
▁立而	-11774
▁而往	-11775
▁而行	-11776
▁臥於	-11777
▁自彼	-11778
▁若以	-11779
▁莫能	-11780
▁西巴	-11781
▁起往	-11782
▁較前	-11783
▁迦特	-11784
▁金銀	-11785
▁非為	-11786
三十歲	-11787
上帝旨	-11788
之俘囚	-11789
之少者	-11790
之於獄	-11791
之燔祭	-11792
亞嫩谷	-11793
人之心	-11794
以之為	-11795
以為業	-11796
以革倫	-11797
伯和崙	-11798
先知也	-11799
入會幕	-11800
全能者	-11801
六十人	-11802
利比拉	-11803
十二徒	-11804
告我曰	-11805
在殿宇	-11806
大利烏	-11807
如此也	-11808
子約押	-11809
安得烈	-11810
少者曰	-11811
居之地	-11812
居其中	-11813
居民歟	-11814
希臘人	-11815
惡者之	-11816
所愛者	-11817
所有之	-11818
所生者	-11819
所言之	-11820
手所造	-11821
拿俄米	-11822
於我主	-11823
於我也	-11824
於耶穌	-11825
於邑門	-11826
施戶珥	-11827
施拯救	-11828
月二十	-11829
有數卷	-11830
服事之	-11831
油一欣	-11832
法老曰	-11833
洗革拉	-11834
為其所	-11835
為爾之	-11836
畏上帝	-11837
當應曰	-11838
當行之	-11839
目中之	-11840
知之矣	-11841
知我乃	-11842
祈禱時	-11843
稱之為	-11844
米拉利	-11845
者之聲	-11846
而不能	-11847
而予之	-11848
而出之	-11849
而滅之	-11850
耶書亞	-11851
聽其言	-11852
自而來	-11853
與上帝	-11854
訓詞兮	-11855
輸其一	-11856
長老曰	-11857
首生之	-11858
bɔni	-11859
dron	-11860
goro	-11861
mfom	-11862
mmoa	-11863
nnya	-11864
omer	-11865
reka	-11866
sand	-11867
sifo	-11868
soaa	-11869
team	-11870
teni	-11871
tifo	-11872
trɛɛ	-11873
turu	-11874
wire	-11875
yiyi	-11876
▁kuw	-11877
▁was	-11878
▁yɛm	-11879
▁一無所	-11880
▁上帝不	-11881
▁上帝諭	-11882
▁乃上帝	-11883
▁亦如是	-11884
▁俱盈以	-11885
▁如其所	-11886
▁惡人之	-11887
▁我見其	-11888
▁摩西以	-11889
▁摩西與	-11890
▁故耶穌	-11891
▁既言此	-11892
▁毋作苦	-11893
▁為我之	-11894
▁無花果	-11895
▁牡犢一	-11896
▁瑪西雅	-11897
▁約雅敬	-11898
▁耶穌又	-11899
▁耶穌自	-11900
▁耶穌遂	-11901
▁自埃及	-11902
▁與丁男	-11903
▁與之同	-11904
▁諭之曰	-11905
▁迦南人	-11906
▁銀盂一	-11907
▁銀盤一	-11908
上帝之榮	-11909
世世無盡	-11910
亞倫子孫	-11911
亞斯他錄	-11912
付於爾手	-11913
以利亞實	-11914
以色列者	-11915
侃侃而言	-11916
區別為聖	-11917
可惡之物	-11918
大而可畏	-11919
子約阿施	-11920
子約雅敬	-11921
得拉米煞	-11922
悖逆之家	-11923
我父大衛	-11924
撒迦利亞	-11925
歡欣喜樂	-11926
為其牧伯	-11927
眾祭司長	-11928
至上者之	-11929
荊棘蒺藜	-11930
謂大衛曰	-11931
食無酵餅	-11932
麥基洗德	-11933
duani	-11934
fehad	-11935
mawet	-11936
nwoeɛ	-11937
pamoo	-11938
piani	-11939
senee	-11940
silai	-11941
sopam	-11942
suahu	-11943
tarot	-11944
uadeɛ	-11945
wɛtwɛ	-11946
▁abel	-11947
▁abuo	-11948
▁ahoa	-11949
▁alek	-11950
▁amia	-11951
▁ammu	-11952
▁ansɔ	-11953
▁anwo	-11954
▁apia	-11955
▁arba	-11956
▁fata	-11957
▁hama	-11958
▁kere	-11959
▁kili	-11960
▁kita	-11961
▁mena	-11962
▁mfaa	-11963
▁mfɛn	-11964
▁mmee	-11965
▁mɛsi	-11966
▁naha	-11967
▁ntim	-11968
▁ntrɛ	-11969
▁ohia	-11970
▁okun	-11971
▁osii	-11972
▁repɛ	-11973
▁tase	-11974
▁toma	-11975
▁trɛw	-11976
▁wasi	-11977
▁wosi	-11978
▁wosɔ	-11979
▁wɔko	-11980
▁ɔnku	-11981
▁ɔwɛn	-11982
▁ɛkae	-11983
▁ɛtoɔ	-11984
▁ɛtrɛ	-11985
▁亞多尼雅	-11986
▁以色列中	-11987
▁及其子孫	-11988
▁哈拿尼雅	-11989
▁基督之名	-11990
▁尼提甯人	-11991
▁我兄弟乎	-11992
▁我為爾敵	-11993
▁植葡萄園	-11994
▁爰及子孫	-11995
▁爾之子女	-11996
▁爾所知也	-11997
▁牡山羊一	-11998
▁牡山羊五	-11999
▁牡綿羊五	-12000
▁當告之曰	-12001
▁羅波安王	-12002
▁迨耶和華	-12003
▁遂謂之曰	-12004
之以色列人	-12005
二萬四千人	-12006
以色列人曰	-12007
建耶和華室	-12008
擊非利士人	-12009
祭司利未人	-12010
自耶路撒冷	-12011
與耶路撒冷	-12012
魯雅子約押	-12013
bibire	-12014
hyehye	-12015
hyɛfoɔ	-12016
kyeraa	-12017
pansam	-12018
▁abedi	-12019
▁abere	-12020
▁abɛsi	-12021
▁adeyɛ	-12022
▁afide	-12023
▁afobu	-12024
▁akɔyɛ	-12025
▁amene	-12026
▁apolo	-12027
▁baana	-12028
▁bagua	-12029
▁bilha	-12030
▁binim	-12031
▁bɛbom	-12032
▁bɛnta	-12033
▁bɛpam	-12034
▁bɛtim	-12035
▁bɛwie	-12036
▁dibon	-12037
▁heber	-12038
▁hinom	-12039
▁kedes	-12040
▁kenas	-12041
▁kodii	-12042
▁kyene	-12043
▁kyini	-12044
▁kɔkoe	-12045
▁manni	-12046
▁mesii	-12047
▁metoo	-12048
▁mmɛbɔ	-12049
▁monim	-12050
▁montu	-12051
▁mɛtua	-12052
▁nitan	-12053
▁nnade	-12054
▁nnaeɛ	-12055
▁nseku	-12056
▁nsesa	-12057
▁nsosɔ	-12058
▁obeyi	-12059
▁okunu	-12060
▁ornan	-12061
▁pataa	-12062
▁renhu	-12063
▁sikri	-12064
▁susuw	-12065
▁tabor	-12066
▁wakum	-12067
▁wanyɛ	-12068
▁wobuu	-12069
▁wokyi	-12070
▁wonte	-12071
▁wotwe	-12072
▁wɔaku	-12073
▁wɔdie	-12074
▁wɔsen	-12075
▁wɔtii	-12076
▁yafet	-12077
▁yeduu	-12078
▁yɛaka	-12079
▁yɛkaa	-12080
▁ɔhwee	-12081
▁ɔpedu	-12082
▁ɔteaa	-12083
▁ɔtumi	-12084
▁ɔwiee	-12085
▁ɛkyɛm	-12086
▁ɛnnya	-12087
▁ɛrebɛ	-12088
▁在耶和華室	-12089
▁必絕於民中	-12090
▁眾民當應曰	-12091
亞摩利王西宏	-12092
boaboaa	-12093
dwumfoɔ	-12094
nnyadeɛ	-12095
▁abereɛ	-12096
▁abubuo	-12097
▁ahyɛne	-12098
▁amusie	-12099
▁anhwea	-12100
▁aniteɛ	-12101
▁ansane	-12102
▁arabia	-12103
▁awuraa	-12104
▁bɛbobɔ	-12105
▁bɛkorɔ	-12106
▁emufoɔ	-12107
▁hanani	-12108
▁hunuiɛ	-12109
▁kidron	-12110
▁kommyɛ	-12111
▁kraman	-12112
▁kukuwa	-12113
▁kɔntɔn	-12114
▁mebobɔ	-12115
▁mennom	-12116
▁meremm	-12117
▁mikmas	-12118
▁mobɛte	-12119
▁mommmɔ	-12120
▁monsɛe	-12121
▁mudwen	-12122
▁mɛsɔre	-12123
▁nhunuu	-12124
▁ntoman	-12125
▁osetie	-12126
▁osuahu	-12127
▁seesei	-12128
▁sianee	-12129
▁sumpii	-12130
▁taaboɔ	-12131
▁tukorɔ	-12132
▁wadane	-12133
▁wannye	-12134
▁wasane	-12135
▁wobeyi	-12136
▁wobuae	-12137
▁wogyaw	-12138
▁wusɔre	-12139
▁wɔafrɛ	-12140
▁wɔankɔ	-12141
▁wɔbɛwo	-12142
▁wɔtwɛn	-12143
▁ɔhwiee	-12144
▁ɔntumi	-12145
▁ɔtotoo	-12146
▁ɛkɔpem	-12147
▁ɛmfata	-12148
▁ɛnonom	-12149
▁一歲之牡羔一	-12150
▁一歲之牡羔五	-12151
▁如耶和華所言	-12152
▁更獻牡山羊一	-12153
▁重七十舍客勒	-12154
以色列人出埃及	-12155
▁abɛhyia	-12156
▁adaadaa	-12157
▁adagyaw	-12158
▁afoforɔ	-12159
▁agyirae	-12160
▁ahodwan	-12161
▁akunkum	-12162
▁apontow	-12163
▁astarot	-12164
▁busuani	-12165
▁bɛdwiri	-12166
▁bɛkataa	-12167
▁mmakoma	-12168
▁mmɔreka	-12169
▁mususuw	-12170
▁netanel	-12171
▁nsuyiri	-12172
▁obonini	-12173
▁osikani	-12174
▁sefatia	-12175
▁sotefoɔ	-12176
▁woremma	-12177
▁wɔnkɔfa	-12178
▁wɔnnane	-12179
▁ɔdaadaa	-12180
▁ɔhempɔn	-12181
▁ɔsahene	-12182
▁ɔsomafo	-12183
▁ɔtorofo	-12184
▁以色列王約阿施	-12185
▁萬軍之主耶和華	-12186
得拉米煞亞伯尼歌	-12187
kurukyire	-12188
▁abrannaa	-12189
▁ahuhufoɔ	-12190
▁aleksand	-12191
▁asɔfodie	-12192
▁barsilai	-12193
▁elisabet	-12194
▁mahanaim	-12195
▁mehunuiɛ	-12196
▁mehwehwɛ	-12197
▁merebɛka	-12198
▁ntweaban	-12199
▁nwansena	-12200
▁sealtiel	-12201
▁towgyefo	-12202
▁wɔkɔfrɛɛ	-12203
▁ɔkwatani	-12204
▁ɔtwitwaa	-12205
▁俱盈以和油之細麵	-12206
▁耶和華諭耶利米曰	-12207
▁重一百三十舍客勒	-12208
▁adwumaden	-12209
▁duraduraa	-12210
▁gersonfoɔ	-12211
▁keretifoɔ	-12212
▁nkatanimu	-12213
▁selofehad	-12214
▁susukoraa	-12215
▁wɔboaboaa	-12216
▁wɔbɛkyere	-12217
▁wɔhwehwɛɛ	-12218
▁ɔmannwoeɛ	-12219
▁ɔrehwehwɛ	-12220
▁atorɔmudeɛ	-12221
▁awunnyadeɛ	-12222
▁gyatabereɛ	-12223
▁kukuduuduu	-12224
▁teneneefoɔ	-12225
▁ɔsunsuanee	-12226
▁遵耶和華所諭摩西之命	-12227
▁apopobibire	-12228
▁ɔdebɔneyɛni	-12229
▁amanehunufoɔ	-12230
▁rekyerɛkyerɛ	-12231
▁ɔkyerɛkyerɛɛ	-12232
▁kantankrankyi	-12233
▁侵	-12234
▁修	-12235
▁償	-12236
▁制	-12237
▁勤	-12238
▁哭	-12239
▁嘗	-12240
▁失	-12241
▁奮	-12242
▁季	-12243
▁屏	-12244
▁履	-12245
▁彰	-12246
▁挈	-12247
▁摩	-12248
▁擾	-12249
▁板	-12250
▁枝	-12251
▁殲	-12252
▁毫	-12253
▁爇	-12254
▁狀	-12255
▁產	-12256
▁畜	-12257
▁盈	-12258
▁等	-12259
▁納	-12260
▁罔	-12261
▁罰	-12262
▁羣	-12263
▁詎	-12264
▁證	-12265
▁赫	-12266
▁逾	-12267
▁遲	-12268
▁鑒	-12269
▁鞭	-12270
▁飾	-12271
▁駝	-12272
▁魚	-12273
一體	-12274
丈夫	-12275
三層	-12276
三邑	-12277
下之	-12278
下者	-12279
不息	-12280
不朽	-12281
不然	-12282
不獲	-12283
不自	-12284
不願	-12285
之佳	-12286
之側	-12287
之價	-12288
之城	-12289
之實	-12290
之巨	-12291
之會	-12292
之牀	-12293
之目	-12294
之苦	-12295
之角	-12296
之身	-12297
之骨	-12298
亦可	-12299
亦在	-12300
人畜	-12301
仁義	-12302
以拉	-12303
以攔	-12304
任意	-12305
位之	-12306
何故	-12307
來此	-12308
信我	-12309
修好	-12310
偕來	-12311
入時	-12312
入膚	-12313
八百	-12314
六日	-12315
其役	-12316
其行	-12317
其門	-12318
其骨	-12319
出戰	-12320
出至	-12321
初胎	-12322
判斷	-12323
則喜	-12324
前有	-12325
力士	-12326
加低	-12327
助爾	-12328
化為	-12329
卑者	-12330
即此	-12331
及於	-12332
反齧	-12333
取爾	-12334
受刑	-12335
受難	-12336
可得	-12337
各二	-12338
各有	-12339
名譽	-12340
呼號	-12341
哈大	-12342
哈抹	-12343
善也	-12344
喜悅	-12345
喪膽	-12346
嘉者	-12347
在田	-12348
坐我	-12349
坦途	-12350
基色	-12351
堅固	-12352
壇前	-12353
夏瑣	-12354
多有	-12355
大之	-12356
大也	-12357
大臣	-12358
大袞	-12359
天之	-12360
奇其	-12361
女王	-12362
如彼	-12363
妄證	-12364
存之	-12365
存者	-12366
孤子	-12367
守者	-12368
完全	-12369
定期	-12370
家主	-12371
將自	-12372
小者	-12373
尤為	-12374
尼流	-12375
屆期	-12376
岡陵	-12377
希雅	-12378
干戈	-12379
年之	-12380
庇太	-12381
底謝	-12382
庸人	-12383
強盛	-12384
強項	-12385
彼也	-12386
得成	-12387
從事	-12388
復和	-12389
必至	-12390
念之	-12391
恩惠	-12392
惡途	-12393
愚昧	-12394
愛情	-12395
憂傷	-12396
我首	-12397
所宜	-12398
所殺	-12399
所製	-12400
所錫	-12401
手於	-12402
捕風	-12403
提多	-12404
搖首	-12405
撒羅	-12406
撒萊	-12407
操權	-12408
教法	-12409
於二	-12410
於衢	-12411
於路	-12412
既久	-12413
日久	-12414
有光	-12415
有子	-12416
有益	-12417
有者	-12418
木工	-12419
杜蘭	-12420
榮美	-12421
樂器	-12422
欷歔	-12423
此子	-12424
母利	-12425
每日	-12426
比人	-12427
氣息	-12428
污染	-12429
汲淪	-12430
法匱	-12431
浴盤	-12432
海沙	-12433
準繩	-12434
漲溢	-12435
濯足	-12436
灌溉	-12437
為愚	-12438
為樂	-12439
無庸	-12440
無故	-12441
無王	-12442
無論	-12443
爭端	-12444
父也	-12445
爾境	-12446
爾面	-12447
牝獅	-12448
物之	-12449
犧牲	-12450
獲之	-12451
獲益	-12452
生時	-12453
甦我	-12454
由之	-12455
由爾	-12456
盜賊	-12457
相偕	-12458
眾中	-12459
知此	-12460
石版	-12461
硫磺	-12462
神之	-12463
禾束	-12464
稱曰	-12465
稱讚	-12466
第二	-12467
築壘	-12468
紅玉	-12469
細耳	-12470
結盟	-12471
給以	-12472
綠樹	-12473
維方	-12474
羅亞	-12475
羅底	-12476
者來	-12477
而備	-12478
而相	-12479
而退	-12480
聞者	-12481
聰慧	-12482
肅會	-12483
脫者	-12484
自大	-12485
自死	-12486
至今	-12487
至微	-12488
葬之	-12489
蒙選	-12490
蔭下	-12491
號筒	-12492
行詐	-12493
被戮	-12494
裨益	-12495
西番	-12496
見有	-12497
見絕	-12498
言也	-12499
言及	-12500
設之	-12501
詳察	-12502
諸兆	-12503
諸難	-12504
豔麗	-12505
負之	-12506
貨品	-12507
賀梅	-12508
輝光	-12509
轉向	-12510
迷途	-12511
進前	-12512
遂出	-12513
過於	-12514
過犯	-12515
道而	-12516
遣者	-12517
選民	-12518
遺傳	-12519
避之	-12520
邪曲	-12521
錄於	-12522
錫以	-12523
陸地	-12524
集爾	-12525
離彼	-12526
離散	-12527
靈魂	-12528
飲其	-12529
鬼者	-12530
鴻慈	-12531
鹽海	-12532
鼓掌	-12533
aba	-12534
beɛ	-12535
edi	-12536
fak	-12537
fia	-12538
fɔn	-12539
gow	-12540
kol	-12541
sub	-12542
sɛw	-12543
▁一見	-12544
▁不再	-12545
▁不論	-12546
▁亞他	-12547
▁亞伯	-12548
▁亞勒	-12549
▁亦皆	-12550
▁令其	-12551
▁以己	-12552
▁以除	-12553
▁任爾	-12554
▁俱循	-12555
▁兵卒	-12556
▁其座	-12557
▁其榮	-12558
▁其權	-12559
▁其水	-12560
▁其班	-12561
▁其罪	-12562
▁其血	-12563
▁即昔	-12564
▁又作	-12565
▁又取	-12566
▁又在	-12567
▁及居	-12568
▁及旦	-12569
▁可得	-12570
▁各有	-12571
▁哈達	-12572
▁喜樂	-12573
▁地之	-12574
▁執兵	-12575
▁士師	-12576
▁夏瑣	-12577
▁尚有	-12578
▁干犯	-12579
▁幽暗	-12580
▁庶民	-12581
▁延至	-12582
▁彼造	-12583
▁必由	-12584
▁必致	-12585
▁感謝	-12586
▁我因	-12587
▁我復	-12588
▁我恃	-12589
▁我昔	-12590
▁戰士	-12591
▁戶珥	-12592
▁投於	-12593
▁拉伯	-12594
▁拿答	-12595
▁敵必	-12596
▁既入	-12597
▁既為	-12598
▁既聞	-12599
▁曷故	-12600
▁有曰	-12601
▁欣喜	-12602
▁歷程	-12603
▁殘賊	-12604
▁民乃	-12605
▁永不	-12606
▁永為	-12607
▁洪水	-12608
▁為此	-12609
▁為每	-12610
▁焉能	-12611
▁無可	-12612
▁爾因	-12613
▁爾罪	-12614
▁狥欲	-12615
▁用以	-12616
▁當守	-12617
▁眾曰	-12618
▁示利	-12619
▁經行	-12620
▁繕寫	-12621
▁而被	-12622
▁聖所	-12623
▁自爾	-12624
▁至其	-12625
▁若其	-12626
▁莫若	-12627
▁蓋以	-12628
▁藐視	-12629
▁行此	-12630
▁見殺	-12631
▁言此	-12632
▁貨財	-12633
▁賜爾	-12634
▁較之	-12635
▁較彼	-12636
▁迨爾	-12637
▁遂召	-12638
▁遂遣	-12639
▁遣我	-12640
▁長子	-12641
▁雅哈	-12642
▁集於	-12643
▁香柏	-12644
▁麰麥	-12645
七十年	-12646
三十人	-12647
之以刃	-12648
之偶像	-12649
之子女	-12650
之於野	-12651
之約翰	-12652
之而至	-12653
之軍旅	-12654
之門徒	-12655
之首日	-12656
亞實突	-12657
亞撒黑	-12658
亞比雅	-12659
以利法	-12660
來之事	-12661
兄以掃	-12662
其地曰	-12663
利未族	-12664
動搖兮	-12665
區別之	-12666
十二年	-12667
參巴拉	-12668
命而行	-12669
四生物	-12670
四百人	-12671
在我前	-12672
基列之	-12673
多比雅	-12674
大祭司	-12675
大衛家	-12676
子以撒	-12677
子比加	-12678
安在哉	-12679
尼尼微	-12680
居其地	-12681
崇拜之	-12682
彼得曰	-12683
從其言	-12684
我所行	-12685
我所言	-12686
我為王	-12687
我聖名	-12688
所聞者	-12689
所行者	-12690
提沙撒	-12691
攻我者	-12692
於其口	-12693
於其家	-12694
於我兮	-12695
於敵前	-12696
於死亡	-12697
於爾身	-12698
於發怒	-12699
於鋒刃	-12700
曠野之	-12701
會眾前	-12702
有智慧	-12703
橄欖山	-12704
法提雅	-12705
波斯王	-12706
波阿斯	-12707
流便人	-12708
激我怒	-12709
為之證	-12710
為其民	-12711
無一人	-12712
父大衛	-12713
爾者必	-12714
生命之	-12715
相議曰	-12716
米甸人	-12717
索其命	-12718
者之中	-12719
而得者	-12720
而行者	-12721
耶穌者	-12722
聞其聲	-12723
萬民兮	-12724
行奇事	-12725
視為善	-12726
言方言	-12727
謂爾曰	-12728
賜我之	-12729
錫安山	-12730
隨其後	-12731
雅各曰	-12732
預言者	-12733
bora	-12734
emaa	-12735
enai	-12736
fran	-12737
gyew	-12738
imfo	-12739
kiti	-12740
liel	-12741
meel	-12742
niel	-12743
nnam	-12744
nyaa	-12745
porɔ	-12746
sosɔ	-12747
tafi	-12748
tafo	-12749
wuru	-12750
ɔnee	-12751
ɛnee	-12752
▁ami	-12753
▁bon	-12754
▁dor	-12755
▁ewi	-12756
▁him	-12757
▁lis	-12758
▁naa	-12759
▁oye	-12760
▁pis	-12761
▁siw	-12762
▁tom	-12763
▁tɔe	-12764
▁usi	-12765
▁yit	-12766
▁且行且	-12767
▁亞基帕	-12768
▁亞希突	-12769
▁以革倫	-12770
▁作惡者	-12771
▁六日間	-12772
▁即我所	-12773
▁問安於	-12774
▁四周有	-12775
▁壯乃志	-12776
▁多比雅	-12777
▁大衛在	-12778
▁大馬色	-12779
▁彼不得	-12780
▁彼得曰	-12781
▁我儕當	-12782
▁所多瑪	-12783
▁提哥亞	-12784
▁斯時也	-12785
▁書拉密	-12786
▁烏利亞	-12787
▁爾中誰	-12788
▁相語曰	-12789
▁第三日	-12790
▁米該雅	-12791
▁耶書亞	-12792
▁耶杜頓	-12793
▁耶穌入	-12794
▁蓋爾之	-12795
▁非尼哈	-12796
▁非爾所	-12797
上帝之名	-12798
上帝室之	-12799
之猶太人	-12800
二萬二千	-12801
亞哈隨魯	-12802
亞述王手	-12803
以法蓮人	-12804
伊施波設	-12805
其有福兮	-12806
加低斯巴	-12807
可憎之物	-12808
君王牧伯	-12809
四分之一	-12810
因耶和華	-12811
基列耶琳	-12812
大衛之位	-12813
宅地之人	-12814
巴旦亞蘭	-12815
希伯來人	-12816
式飲式食	-12817
我僕大衛	-12818
所得之區	-12819
所生之子	-12820
所羅門之	-12821
所諭爾者	-12822
指耶和華	-12823
撒加利亞	-12824
撒迦利雅	-12825
於巴比倫	-12826
於會幕門	-12827
滿於聖靈	-12828
異蹟奇事	-12829
當滅之物	-12830
禱告祈求	-12831
耶和華兮	-12832
脫於其手	-12833
脫於我手	-12834
與其鄉里	-12835
誤殺人者	-12836
謂其不潔	-12837
balat	-12838
eatoɔ	-12839
elike	-12840
fania	-12841
kekaa	-12842
maboɔ	-12843
nadeɛ	-12844
pueeɛ	-12845
rebuo	-12846
▁abea	-12847
▁adun	-12848
▁agag	-12849
▁ahow	-12850
▁amam	-12851
▁asoɛ	-12852
▁asur	-12853
▁awɔw	-12854
▁beor	-12855
▁bɛwe	-12856
▁dina	-12857
▁dome	-12858
▁eguu	-12859
▁ehud	-12860
▁epie	-12861
▁hara	-12862
▁hini	-12863
▁kɔto	-12864
▁mfrɛ	-12865
▁mumu	-12866
▁mɛtu	-12867
▁neko	-12868
▁nkun	-12869
▁nnaa	-12870
▁nsrɛ	-12871
▁ntɔn	-12872
▁ofir	-12873
▁reto	-12874
▁sipo	-12875
▁sɔfo	-12876
▁tema	-12877
▁yeus	-12878
▁ɔgya	-12879
▁ɔnnɔ	-12880
▁ɔnsa	-12881
▁ɔpɛe	-12882
▁ɔtie	-12883
▁ɛdɛm	-12884
▁ɛmom	-12885
▁ɛnsi	-12886
▁一萬二千	-12887
▁亞他利雅	-12888
▁亞希多弗	-12889
▁亞瑪利雅	-12890
▁包之以金	-12891
▁及瑪拿西	-12892
▁在約但東	-12893
▁大衛之裔	-12894
▁彼之軍旅	-12895
▁必負其罪	-12896
▁所羅門曰	-12897
▁昔耶和華	-12898
▁焚之於壇	-12899
▁爾其號咷	-12900
▁眾祭司長	-12901
▁祭司亞倫	-12902
▁耶和華怒	-12903
▁自裂其衣	-12904
▁越至八日	-12905
上帝之子也	-12906
五十舍客勒	-12907
尋求耶和華	-12908
往耶路撒冷	-12909
耶和華之命	-12910
非利士人戰	-12911
ammisa	-12912
franam	-12913
hinhim	-12914
kanyan	-12915
ruburo	-12916
tontɔn	-12917
▁abihu	-12918
▁adwen	-12919
▁adɔre	-12920
▁agyaw	-12921
▁akɔto	-12922
▁aniha	-12923
▁asram	-12924
▁bedii	-12925
▁belte	-12926
▁betwa	-12927
▁boafo	-12928
▁bobom	-12929
▁bɛdie	-12930
▁bɛkoe	-12931
▁dwene	-12932
▁ebesi	-12933
▁eglon	-12934
▁elihu	-12935
▁etumi	-12936
▁galɔn	-12937
▁habel	-12938
▁hagai	-12939
▁hamee	-12940
▁hanun	-12941
▁horma	-12942
▁huram	-12943
▁hwiee	-12944
▁hɔfoɔ	-12945
▁kanko	-12946
▁kotow	-12947
▁kusni	-12948
▁kɔhwɛ	-12949
▁marko	-12950
▁melek	-12951
▁memmɔ	-12952
▁mesom	-12953
▁meyɛe	-12954
▁milka	-12955
▁mmura	-12956
▁mmɛsa	-12957
▁nahas	-12958
▁neria	-12959
▁nkora	-12960
▁nnnye	-12961
▁nsram	-12962
▁ntasu	-12963
▁ntene	-12964
▁odwen	-12965
▁ogyaw	-12966
▁reuel	-12967
▁sibea	-12968
▁sɛbeɛ	-12969
▁tanee	-12970
▁tofet	-12971
▁tubal	-12972
▁wanhu	-12973
▁wanto	-12974
▁wasti	-12975
▁woato	-12976
▁wobɛn	-12977
▁wɔasa	-12978
▁wɔfae	-12979
▁wɔpoo	-12980
▁wɔpɛe	-12981
▁wɔteɛ	-12982
▁yeiel	-12983
▁yerah	-12984
▁yetro	-12985
▁yɛfaa	-12986
▁yɛtee	-12987
▁ɔboaa	-12988
▁ɔbɛbu	-12989
▁ɔgyeɛ	-12990
▁ɔhɔho	-12991
▁ɔnnni	-12992
▁ɔrepɛ	-12993
▁ɔsɛee	-12994
▁ɔtare	-12995
▁ɔwerɛ	-12996
▁ɔyera	-12997
▁ɛkata	-12998
▁ɛkwan	-12999
▁ɛyerɛ	-13000
▁故耶和華曰	-13001
▁為以色列王	-13002
▁為贖罪之祭	-13003
▁當以為不潔	-13004
▁蓋耶和華之	-13005
伊法十分之二	-13006
猶大王希西家	-13007
猶大王西底家	-13008
素祭灌祭之外	-13009
舁耶和華約匱	-13010
siesiee	-13011
soduane	-13012
wɛtwɛdɛ	-13013
▁abiram	-13014
▁adikan	-13015
▁adulam	-13016
▁afanan	-13017
▁agudeɛ	-13018
▁annane	-13019
▁anokwa	-13020
▁atifoɔ	-13021
▁bukyia	-13022
▁bɔneyɛ	-13023
▁bɛtwam	-13024
▁debora	-13025
▁egyina	-13026
▁felike	-13027
▁fitafi	-13028
▁hinhim	-13029
▁hoaboɔ	-13030
▁hyiaeɛ	-13031
▁mabubu	-13032
▁manfoɔ	-13033
▁megyee	-13034
▁mesane	-13035
▁mesoma	-13036
▁mfirii	-13037
▁mobɛfa	-13038
▁mobɛkɔ	-13039
▁moduru	-13040
▁monkan	-13041
▁mpakye	-13042
▁mɛbubu	-13043
▁mɛtumi	-13044
▁nantin	-13045
▁nnwane	-13046
▁ontumi	-13047
▁rebɛyɛ	-13048
▁refaim	-13049
▁retwɛn	-13050
▁sahene	-13051
▁sorɔno	-13052
▁trɛwee	-13053
▁tuatua	-13054
▁wabubu	-13055
▁watumi	-13056
▁woabrɛ	-13057
▁woasɛe	-13058
▁wɔaguo	-13059
▁wɔante	-13060
▁wɔbuaa	-13061
▁wɔbɛto	-13062
▁wɔbɛyi	-13063
▁wɔgyee	-13064
▁wɔmmoa	-13065
▁wɔnhye	-13066
▁wɔnhyɛ	-13067
▁wɔnnyɛ	-13068
▁wɔsrɛɛ	-13069
▁yennim	-13070
▁ɔbubuu	-13071
▁ɔbɛhyɛ	-13072
▁ɔkasae	-13073
▁ɔmpata	-13074
▁ɔremfa	-13075
▁ɔtenee	-13076
▁ɔteɛɛm	-13077
▁ɔyiyii	-13078
▁ɛredɛw	-13079
▁瑪拿西半支派	-13080
▁脫於奴隸之室	-13081
上帝耶和華之名	-13082
約西亞子約雅敬	-13083
kyekyerɛ	-13084
▁aboadeɛ	-13085
▁adagyew	-13086
▁ahintaw	-13087
▁ahotoso	-13088
▁ahurisi	-13089
▁ahwɛdeɛ	-13090
▁ahyerɛn	-13091
▁akwante	-13092
▁akɔtena	-13093
▁apeatoɔ	-13094
▁atwitwa	-13095
▁berekia	-13096
▁edomfoɔ	-13097
▁kasatia	-13098
▁mfɛntom	-13099
▁mmɔnten	-13100
▁moannye	-13101
▁momforo	-13102
▁monnhyɛ	-13103
▁mpiafoɔ	-13104
▁munnnye	-13105
▁munnyae	-13106
▁nhoahoa	-13107
▁nkoafie	-13108
▁nkoasom	-13109
▁nkɔduru	-13110
▁okunafo	-13111
▁owudini	-13112
▁sefania	-13113
▁selemia	-13114
▁wamfiri	-13115
▁wampene	-13116
▁wantumi	-13117
▁woadane	-13118
▁wofitii	-13119
▁worenni	-13120
▁wubegye	-13121
▁wubenya	-13122
▁wɔaborɔ	-13123
▁wɔabɛyɛ	-13124
▁wɔbɛgya	-13125
▁wɔbɛtwe	-13126
▁wɔkɔtoo	-13127
▁wɔnante	-13128
▁wɔrente	-13129
▁wɔsesee	-13130
▁wɔsuroo	-13131
▁yonadab	-13132
▁ɔnwonoo	-13133
▁以為馨香之火祭	-13134
▁其班二萬四千人	-13135
▁我上帝耶和華歟	-13136
▁摩西遵耶和華命	-13137
▁耶穌應而語之曰	-13138
kyekyefoɔ	-13139
▁adansedi	-13140
▁ahenkuro	-13141
▁ahuhusɛm	-13142
▁ahweaseɛ	-13143
▁akɔneaba	-13144
▁bɛhwehwɛ	-13145
▁gyaframa	-13146
▁kyinhyia	-13147
▁makyerɛw	-13148
▁mankyerɛ	-13149
▁monhyɛne	-13150
▁nantewee	-13151
▁nkyehoma	-13152
▁nkɔntorɔ	-13153
▁nnamnnam	-13154
▁nsusuwii	-13155
▁odwumfoɔ	-13156
▁rennyina	-13157
▁sanbalat	-13158
▁susuhoma	-13159
▁worennya	-13160
▁wɔakyere	-13161
▁wɔbɛdane	-13162
▁wɔbɛtotɔ	-13163
▁wɔkyerɛw	-13164
▁wɔrenkae	-13165
▁ɔbɛkyerɛ	-13166
▁及其素祭灌祭之外	-13167
▁爾其頌美耶和華兮	-13168
▁aburuburo	-13169
▁ahodwiriw	-13170
▁ahohoahoa	-13171
▁asunsuane	-13172
▁bisabisaa	-13173
▁butubutuu	-13174
▁dwamamfoɔ	-13175
▁mmɔborɔfo	-13176
▁nneduadan	-13177
▁nsubɔnhwa	-13178
▁ntwɛtwɛdɛ	-13179
▁owigyinae	-13180
▁sunsuanee	-13181
▁weretɔfoɔ	-13182
▁wɔkɔhyiaa	-13183
▁wɔrenhunu	-13184
▁wɔsiesiee	-13185
▁yerahmeel	-13186
▁ɔbaakofoɔ	-13187
▁ɔkyekyere	-13188
▁ɛrefranam	-13189
▁ahohoradeɛ	-13190
▁akwankyerɛ	-13191
▁asubɔntene	-13192
▁beltesasar	-13193
▁dwanedwane	-13194
▁etiopiafoɔ	-13195
▁nnwamamfoɔ	-13196
▁nsakyeraho	-13197
▁ɔkwadwofoɔ	-13198
▁以色列之上帝耶和華歟	-13199
▁我指維生之耶和華而誓	-13200
▁akwansrafoɔ	-13201
▁asɛntenenee	-13202
▁akwansoduane	-13203
▁mfunumupɔnkɔ	-13204
▁仆	-13205
▁切	-13206
▁卒	-13207
▁君	-13208
▁園	-13209
▁妻	-13210
▁宥	-13211
▁怨	-13212
▁戲	-13213
▁扶	-13214
▁抱	-13215
▁推	-13216
▁斂	-13217
▁昏	-13218
▁晨	-13219
▁暮	-13220
▁會	-13221
▁渴	-13222
▁焉	-13223
▁營	-13224
▁犬	-13225
▁瞻	-13226
▁脣	-13227
▁草	-13228
▁荷	-13229
▁薩	-13230
▁虐	-13231
▁詛	-13232
▁貪	-13233
▁退	-13234
▁鈎	-13235
▁阻	-13236
▁雞	-13237
一竿	-13238
七倍	-13239
七月	-13240
上者	-13241
不公	-13242
不我	-13243
不敢	-13244
不服	-13245
不歸	-13246
不絕	-13247
不聞	-13248
不行	-13249
不順	-13250
世系	-13251
丟珥	-13252
之三	-13253
之刃	-13254
之南	-13255
之夫	-13256
之式	-13257
之成	-13258
之由	-13259
之索	-13260
之臣	-13261
之親	-13262
之詛	-13263
之野	-13264
之食	-13265
之麥	-13266
乞糴	-13267
事爾	-13268
亞當	-13269
亡乎	-13270
亦死	-13271
人斯	-13272
人民	-13273
人言	-13274
什物	-13275
他泊	-13276
他邦	-13277
代之	-13278
以何	-13279
以得	-13280
以致	-13281
以靈	-13282
以飲	-13283
何也	-13284
何由	-13285
來見	-13286
依此	-13287
俄頃	-13288
修偉	-13289
俯首	-13290
傳於	-13291
光輝	-13292
全族	-13293
兩端	-13294
共分	-13295
其值	-13296
其業	-13297
其欲	-13298
其約	-13299
其肉	-13300
其軍	-13301
出以	-13302
出邑	-13303
判之	-13304
創世	-13305
力山	-13306
加害	-13307
勝之	-13308
勸之	-13309
勸勉	-13310
勿以	-13311
匍匐	-13312
十六	-13313
厥口	-13314
厥聲	-13315
去我	-13316
取而	-13317
取血	-13318
可愛	-13319
叱咤	-13320
各一	-13321
同席	-13322
同族	-13323
吾主	-13324
呻吟	-13325
命我	-13326
哈他	-13327
哈嫩	-13328
哈該	-13329
哺乳	-13330
啟之	-13331
喪子	-13332
嗣業	-13333
嘉偶	-13334
四邑	-13335
因我	-13336
困乏	-13337
國中	-13338
在室	-13339
坐而	-13340
坑坎	-13341
城之	-13342
執刃	-13343
報施	-13344
多也	-13345
多國	-13346
多言	-13347
大尼	-13348
大米	-13349
大軍	-13350
女之	-13351
奸惡	-13352
如我	-13353
如故	-13354
如斯	-13355
娼妓	-13356
婚筵	-13357
安逸	-13358
定罪	-13359
家人	-13360
家室	-13361
密抹	-13362
富人	-13363
富者	-13364
寬廣	-13365
尊逮	-13366
尤大	-13367
山麓	-13368
己者	-13369
已出	-13370
建邑	-13371
引至	-13372
弗聽	-13373
強健	-13374
往見	-13375
律之	-13376
後者	-13377
得免	-13378
得愈	-13379
御門	-13380
復至	-13381
必曰	-13382
忘之	-13383
恆業	-13384
恢復	-13385
恬靜	-13386
悅兮	-13387
惡爾	-13388
愚人	-13389
慕拿	-13390
慧心	-13391
慰之	-13392
應得	-13393
懲之	-13394
懷憂	-13395
懼兮	-13396
我云	-13397
我已	-13398
我與	-13399
我面	-13400
或惡	-13401
戰事	-13402
所敗	-13403
所焚	-13404
所祈	-13405
所積	-13406
所謀	-13407
抄本	-13408
折之	-13409
拔之	-13410
拔刃	-13411
提幔	-13412
揚之	-13413
援我	-13414
摩洛	-13415
擘餅	-13416
據有	-13417
效之	-13418
救己	-13419
救贖	-13420
文字	-13421
斐特	-13422
斯迦	-13423
新酒	-13424
斷乳	-13425
方舟	-13426
於信	-13427
於口	-13428
於左	-13429
於門	-13430
既有	-13431
既沒	-13432
日光	-13433
易多	-13434
昔由	-13435
是言	-13436
暗中	-13437
書於	-13438
有信	-13439
服於	-13440
束腰	-13441
欺我	-13442
歌革	-13443
歸家	-13444
殘害	-13445
殿中	-13446
水中	-13447
水濱	-13448
永居	-13449
求其	-13450
江河	-13451
河外	-13452
治我	-13453
法幕	-13454
波拉	-13455
洋溢	-13456
洩我	-13457
消滅	-13458
淫行	-13459
清晨	-13460
灰塵	-13461
烏撒	-13462
烏施	-13463
無水	-13464
熱心	-13465
父曰	-13466
爾將	-13467
爾目	-13468
爾裔	-13469
爾諸	-13470
牆垣	-13471
狂妄	-13472
猶不	-13473
獲榮	-13474
珍珠	-13475
瑪代	-13476
環之	-13477
瓦器	-13478
甘霖	-13479
甚遠	-13480
生矣	-13481
略人	-13482
當之	-13483
百獸	-13484
百體	-13485
皆為	-13486
皓首	-13487
眾皆	-13488
磯法	-13489
祝福	-13490
禁錮	-13491
禽鳥	-13492
穀之	-13493
穡時	-13494
穩固	-13495
籲爾	-13496
細枲	-13497
緣爾	-13498
繩索	-13499
羊牢	-13500
義而	-13501
者宜	-13502
者既	-13503
者然	-13504
而作	-13505
而懼	-13506
而發	-13507
而聽	-13508
而逃	-13509
而過	-13510
聖室	-13511
聖職	-13512
能者	-13513
至我	-13514
至高	-13515
與偕	-13516
與壇	-13517
與言	-13518
行癸	-13519
被掠	-13520
被毀	-13521
被焚	-13522
被逐	-13523
見召	-13524
話柄	-13525
諸女	-13526
諸聖	-13527
諸邦	-13528
謀士	-13529
謊者	-13530
謹防	-13531
警戒	-13532
警示	-13533
豈無	-13534
豐裕	-13535
負其	-13536
跪拜	-13537
踰越	-13538
軀幹	-13539
輾轉	-13540
近之	-13541
迦瑪	-13542
速至	-13543
遙立	-13544
遷移	-13545
遺棄	-13546
重傷	-13547
野犬	-13548
銅海	-13549
鐵子	-13550
閃電	-13551
陀法	-13552
附近	-13553
降臨	-13554
隱處	-13555
集而	-13556
面前	-13557
順從	-13558
預備	-13559
頑梗	-13560
顚狂	-13561
食者	-13562
養之	-13563
首之	-13564
首領	-13565
香壇	-13566
驕傲	-13567
鴕鳥	-13568
duo	-13569
elu	-13570
gyi	-13571
hɔɔ	-13572
ker	-13573
kos	-13574
kri	-13575
nto	-13576
oam	-13577
prɛ	-13578
rat	-13579
tiw	-13580
ɛmɛ	-13581
ɛre	-13582
▁不在	-13583
▁不容	-13584
▁不識	-13585
▁主必	-13586
▁乃其	-13587
▁乃縵	-13588
▁二千	-13589
▁亞摩	-13590
▁亦在	-13591
▁人因	-13592
▁以予	-13593
▁以告	-13594
▁以弗	-13595
▁以彰	-13596
▁以獻	-13597
▁以祭	-13598
▁以銀	-13599
▁任意	-13600
▁企望	-13601
▁但今	-13602
▁但爾	-13603
▁何能	-13604
▁供事	-13605
▁供役	-13606
▁俘囚	-13607
▁假令	-13608
▁偽善	-13609
▁傾耳	-13610
▁入室	-13611
▁其夫	-13612
▁其足	-13613
▁其面	-13614
▁凡我	-13615
▁凡過	-13616
▁則彼	-13617
▁則自	-13618
▁勿往	-13619
▁南土	-13620
▁南方	-13621
▁又如	-13622
▁又謂	-13623
▁又量	-13624
▁及於	-13625
▁及為	-13626
▁取之	-13627
▁古文	-13628
▁向爾	-13629
▁吾儕	-13630
▁命爾	-13631
▁咸屬	-13632
▁哈琳	-13633
▁哈蘭	-13634
▁哈難	-13635
▁因人	-13636
▁在諸	-13637
▁基士	-13638
▁夏甲	-13639
▁多有	-13640
▁天國	-13641
▁天地	-13642
▁居彼	-13643
▁巴力	-13644
▁彼至	-13645
▁彼豈	-13646
▁必如	-13647
▁必自	-13648
▁悉告	-13649
▁悉為	-13650
▁惰者	-13651
▁我且	-13652
▁我中	-13653
▁我仍	-13654
▁我受	-13655
▁我嘗	-13656
▁我怒	-13657
▁我惟	-13658
▁我意	-13659
▁我至	-13660
▁或於	-13661
▁戰慄	-13662
▁拿鶴	-13663
▁提幔	-13664
▁故必	-13665
▁新郎	-13666
▁明哲	-13667
▁暗利	-13668
▁會幕	-13669
▁有二	-13670
▁有自	-13671
▁服役	-13672
▁欣然	-13673
▁歷時	-13674
▁毋食	-13675
▁母示	-13676
▁火焚	-13677
▁災禍	-13678
▁然非	-13679
▁爾且	-13680
▁爾得	-13681
▁爾敵	-13682
▁爾毋	-13683
▁爾起	-13684
▁爾足	-13685
▁牲畜	-13686
▁猶太	-13687
▁王之	-13688
▁瑪吉	-13689
▁當攜	-13690
▁當於	-13691
▁盡皆	-13692
▁矜憫	-13693
▁示羅	-13694
▁立拿	-13695
▁約珥	-13696
▁罪人	-13697
▁置諸	-13698
▁羣羊	-13699
▁而心	-13700
▁耶歇	-13701
▁聽其	-13702
▁肇造	-13703
▁至高	-13704
▁舉手	-13705
▁若人	-13706
▁行惡	-13707
▁見之	-13708
▁觀其	-13709
▁言時	-13710
▁言誑	-13711
▁許願	-13712
▁諸兄	-13713
▁謂曰	-13714
▁跛者	-13715
▁遂命	-13716
▁遂攜	-13717
▁遂曰	-13718
▁遂至	-13719
▁遂離	-13720
▁雅弗	-13721
▁震怒	-13722
▁饑饉	-13723
▁驅逐	-13724
一萬肘	-13725
七使者	-13726
三十肘	-13727
三千人	-13728
不知其	-13729
不義者	-13730
不識之	-13731
世人之	-13732
之崇邱	-13733
之律例	-13734
之昆弟	-13735
之浸禮	-13736
之班次	-13737
之輕重	-13738
予之食	-13739
亞西亞	-13740
他人之	-13741
他使者	-13742
以攻之	-13743
估之價	-13744
偕爾曹	-13745
僕大衛	-13746
先知者	-13747
入聖所	-13748
其人曰	-13749
其使者	-13750
典章兮	-13751
剪羊毛	-13752
各人所	-13753
呼之曰	-13754
如此之	-13755
子以掃	-13756
子約坦	-13757
守衛室	-13758
宦官長	-13759
尊逮卑	-13760
尋何以	-13761
導我至	-13762
己而言	-13763
巴拉巴	-13764
得其業	-13765
從其類	-13766
我列祖	-13767
我所欲	-13768
我民之	-13769
我父家	-13770
所不當	-13771
所出之	-13772
承斯土	-13773
撒慕拿	-13774
據之地	-13775
敘利亞	-13776
教法師	-13777
斯民之	-13778
於以東	-13779
於全地	-13780
於其間	-13781
於列國	-13782
於地之	-13783
於摩押	-13784
於田間	-13785
於諸天	-13786
染污衊	-13787
此諸事	-13788
沃於壇	-13789
法度兮	-13790
為其業	-13791
為其王	-13792
為大衛	-13793
為我子	-13794
為族長	-13795
烏西雅	-13796
獻牡犢	-13797
瑪其頓	-13798
由之而	-13799
百四十	-13800
益之有	-13801
相對之	-13802
知之乎	-13803
祭司曰	-13804
立之為	-13805
立之約	-13806
約押曰	-13807
羅非哈	-13808
而不見	-13809
耶布斯	-13810
耶穌也	-13811
聞此言	-13812
肉體者	-13813
自以為	-13814
至上者	-13815
致死亡	-13816
與其器	-13817
與我儕	-13818
與我同	-13819
葉忒羅	-13820
血於壇	-13821
衣枲衣	-13822
西西拉	-13823
見異象	-13824
言之使	-13825
言告之	-13826
該亞法	-13827
轉離其	-13828
陀斐特	-13829
食而飽	-13830
首生者	-13831
鬼所附	-13832
bedi	-13833
elet	-13834
hori	-13835
huhu	-13836
hɔre	-13837
kyim	-13838
laia	-13839
mere	-13840
misa	-13841
riba	-13842
ropo	-13843
sael	-13844
sebu	-13845
teɛɛ	-13846
tfoɔ	-13847
tibo	-13848
unum	-13849
wunu	-13850
ɔɔso	-13851
▁kar	-13852
▁mal	-13853
▁mum	-13854
▁nah	-13855
▁put	-13856
▁tro	-13857
▁wiɛ	-13858
▁yab	-13859
▁yar	-13860
▁ɔbe	-13861
▁ɔfɛ	-13862
▁上帝乃	-13863
▁不復為	-13864
▁且我儕	-13865
▁亞比戶	-13866
▁以利法	-13867
▁以爾之	-13868
▁伯示麥	-13869
▁共四邑	-13870
▁其中有	-13871
▁勿畏葸	-13872
▁及其餘	-13873
▁命之曰	-13874
▁基督也	-13875
▁小子乎	-13876
▁希伯崙	-13877
▁強乃心	-13878
▁我使爾	-13879
▁我偕爾	-13880
▁我儕已	-13881
▁我則曰	-13882
▁我父歟	-13883
▁故其地	-13884
▁法勒斯	-13885
▁然上帝	-13886
▁爾不可	-13887
▁爾其往	-13888
▁瑪他尼	-13889
▁瑪挪亞	-13890
▁約哈斯	-13891
▁約瑟曰	-13892
▁細基利	-13893
▁耶穌始	-13894
▁耶穌既	-13895
▁耶穌見	-13896
▁葡萄園	-13897
▁蓋我所	-13898
▁西西拉	-13899
▁計五萬	-13900
▁計四萬	-13901
▁雅各家	-13902
▁非士都	-13903
▁首生之	-13904
上帝之能	-13905
上帝之靈	-13906
之上帝也	-13907
之上帝歟	-13908
五分之一	-13909
仁慈矜憫	-13910
以利亞曰	-13911
便雅憫之	-13912
在天之父	-13913
子約沙法	-13914
子西底家	-13915
寄名之處	-13916
巴珊王噩	-13917
循我典章	-13918
恩寵平康	-13919
我上帝歟	-13920
我所愛者	-13921
所犯之罪	-13922
按手其首	-13923
於上帝室	-13924
於埃及人	-13925
椶樹之狀	-13926
流血之罪	-13927
空中之鳥	-13928
約沙法曰	-13929
耶和華乎	-13930
耶和華殿	-13931
與以色列	-13932
誡命典章	-13933
謂其為潔	-13934
護軍之院	-13935
bedeo	-13936
bɔfoɔ	-13937
duasa	-13938
firaa	-13939
ieser	-13940
konia	-13941
rinto	-13942
tɛbɛn	-13943
▁adin	-13944
▁asrɛ	-13945
▁ateɛ	-13946
▁atɔe	-13947
▁awen	-13948
▁ayie	-13949
▁bibi	-13950
▁buei	-13951
▁bɛpɛ	-13952
▁dabe	-13953
▁ekuo	-13954
▁elon	-13955
▁enum	-13956
▁etam	-13957
▁gama	-13958
▁imer	-13959
▁itai	-13960
▁kadm	-13961
▁kari	-13962
▁kyɛe	-13963
▁kɔda	-13964
▁mapa	-13965
▁mara	-13966
▁mati	-13967
▁matɔ	-13968
▁mawu	-13969
▁mesi	-13970
▁moyi	-13971
▁neto	-13972
▁nhaw	-13973
▁nhin	-13974
▁nnwo	-13975
▁nusu	-13976
▁odwo	-13977
▁okyi	-13978
▁omme	-13979
▁otua	-13980
▁pela	-13981
▁resi	-13982
▁semi	-13983
▁siam	-13984
▁siim	-13985
▁siri	-13986
▁soar	-13987
▁teɛɛ	-13988
▁wadɔ	-13989
▁wawo	-13990
▁wosu	-13991
▁wɔsi	-13992
▁yɛbɔ	-13993
▁yɛdɔ	-13994
▁ɔpem	-13995
▁ɔsoa	-13996
▁ɔtow	-13997
▁ɔtua	-13998
▁ɛnyi	-13999
▁ɛtoo	-14000
▁一心一意	-14001
▁上帝為我	-14002
▁不加矜憫	-14003
▁不可勝數	-14004
▁以奉事我	-14005
▁以為燔祭	-14006
▁以精金作	-14007
▁以耶和華	-14008
▁偽善者乎	-14009
▁其有福兮	-14010
▁則謂之曰	-14011
▁又謂之曰	-14012
▁及其昆弟	-14013
▁在上帝前	-14014
▁基督之恩	-14015
▁循其宗族	-14016
▁我但以理	-14017
▁我所愛者	-14018
▁拉伯沙基	-14019
▁按其行伍	-14020
▁於安息日	-14021
▁歷世靡暨	-14022
▁為牡綿羊	-14023
▁然耶和華	-14024
▁爾其慎之	-14025
▁爾其興起	-14026
▁牡綿羊二	-14027
▁獻為燔祭	-14028
▁米非波設	-14029
▁耶和華又	-14030
▁耶和華室	-14031
▁耶和華為	-14032
▁耶和華與	-14033
▁致耶和華	-14034
一百他連得	-14035
亞伯拉罕曰	-14036
以色列國位	-14037
以色列族之	-14038
子亞撒利雅	-14039
導之出埃及	-14040
從事於會幕	-14041
我之上帝歟	-14042
我所命爾者	-14043
歸於耶和華	-14044
瑪利子比加	-14045
知我耶和華	-14046
耶利米之言	-14047
耶和華之道	-14048
耶和華所諭	-14049
詢於耶和華	-14050
非利士人手	-14051
𠵽唎㘔人之	-14052
amanfo	-14053
denden	-14054
kasaka	-14055
konton	-14056
kuruwa	-14057
kyekyɛ	-14058
kɔnkɔn	-14059
mfafoɔ	-14060
romani	-14061
rɔdɔma	-14062
saloni	-14063
titene	-14064
tuatua	-14065
yinamu	-14066
▁abunu	-14067
▁abɛfa	-14068
▁afefɛ	-14069
▁afɛfo	-14070
▁agugu	-14071
▁ahyew	-14072
▁akɔbɔ	-14073
▁anika	-14074
▁atumi	-14075
▁atutu	-14076
▁awudi	-14077
▁bogya	-14078
▁bosea	-14079
▁bɛbue	-14080
▁bɛfrɛ	-14081
▁bɛsie	-14082
▁datan	-14083
▁eliel	-14084
▁gyama	-14085
▁harim	-14086
▁kyɛre	-14087
▁kɔguu	-14088
▁kɔtɔn	-14089
▁mamre	-14090
▁mesek	-14091
▁mmisa	-14092
▁mmɛbɛ	-14093
▁moaba	-14094
▁mogye	-14095
▁monsi	-14096
▁mpare	-14097
▁mpemd	-14098
▁mpopo	-14099
▁nkɔma	-14100
▁nkɛnt	-14101
▁nsamu	-14102
▁nyane	-14103
▁ontie	-14104
▁otwaa	-14105
▁peleg	-14106
▁rehyɛ	-14107
▁rente	-14108
▁resin	-14109
▁retie	-14110
▁retwa	-14111
▁rewɛn	-14112
▁serew	-14113
▁sobal	-14114
▁tikwa	-14115
▁totɔɔ	-14116
▁wagya	-14117
▁wahwɛ	-14118
▁wankɔ	-14119
▁wanni	-14120
▁wasan	-14121
▁wohyɛ	-14122
▁wosiw	-14123
▁wunni	-14124
▁wɔgya	-14125
▁wɔpae	-14126
▁wɔsoa	-14127
▁wɔwɛn	-14128
▁yairo	-14129
▁yedii	-14130
▁yehuu	-14131
▁yenhu	-14132
▁yerae	-14133
▁yɛama	-14134
▁yɛann	-14135
▁yɛhwɛ	-14136
▁yɛsrɛ	-14137
▁ɔbɛda	-14138
▁ɔkata	-14139
▁ɔkoto	-14140
▁ɔkyɛɛ	-14141
▁ɔmmma	-14142
▁ɔnkum	-14143
▁ɔnnkɔ	-14144
▁ɔpono	-14145
▁ɔrebɔ	-14146
▁ɔtrɛɛ	-14147
▁ɛbaeɛ	-14148
▁ɛhyɛɛ	-14149
▁ɛkeka	-14150
▁年二十有五	-14151
▁我主我王歟	-14152
▁於耶和華前	-14153
▁是日耶和華	-14154
▁為耶和華所	-14155
▁當澣衣濯身	-14156
▁葬於大衛城	-14157
▁釘之十字架	-14158
利巴嫩之香柏	-14159
加低斯巴尼亞	-14160
為以色列士師	-14161
祭司耶何耶大	-14162
耶和華之祭司	-14163
耶孚尼子迦勒	-14164
鋒刃饑饉疫癘	-14165
enkanee	-14166
harefoɔ	-14167
kɔnsani	-14168
unahuna	-14169
▁abeawa	-14170
▁abodwo	-14171
▁aborɔn	-14172
▁abɛhwɛ	-14173
▁adwera	-14174
▁afebɔɔ	-14175
▁aguabɔ	-14176
▁akokwa	-14177
▁akɔsom	-14178
▁arauna	-14179
▁asoɛeɛ	-14180
▁ayalon	-14181
▁ayamyɛ	-14182
▁barnea	-14183
▁beerot	-14184
▁betuel	-14185
▁bɛboro	-14186
▁bɛhyee	-14187
▁bɛkata	-14188
▁daapem	-14189
▁daberɛ	-14190
▁dawuru	-14191
▁dwiraa	-14192
▁dwirii	-14193
▁efrata	-14194
▁fifiri	-14195
▁gyegye	-14196
▁hwammɔ	-14197
▁hwenem	-14198
▁kaldea	-14199
▁korɔno	-14200
▁kɔtwaa	-14201
▁makasa	-14202
▁menhwɛ	-14203
▁meredi	-14204
▁meriba	-14205
▁moabni	-14206
▁moagye	-14207
▁monsan	-14208
▁monsoa	-14209
▁mummue	-14210
▁mutumi	-14211
▁mɛhwie	-14212
▁mɛkasa	-14213
▁mɛtene	-14214
▁nkɔhwɛ	-14215
▁nnahɔɔ	-14216
▁nnwamm	-14217
▁nsanku	-14218
▁nsapan	-14219
▁nsisie	-14220
▁ntanka	-14221
▁otniel	-14222
▁peteeɛ	-14223
▁rentie	-14224
▁santen	-14225
▁sikani	-14226
▁sisire	-14227
▁wobɛsi	-14228
▁woduru	-14229
▁wodwen	-14230
▁wokita	-14231
▁wosiee	-14232
▁woyɛeɛ	-14233
▁wɔaboa	-14234
▁wɔahye	-14235
▁wɔammu	-14236
▁wɔampɛ	-14237
▁wɔatwe	-14238
▁wɔbrɛɛ	-14239
▁wɔbɛhu	-14240
▁wɔbɛtu	-14241
▁wɔdidi	-14242
▁wɔdome	-14243
▁wɔmfaa	-14244
▁wɔnnie	-14245
▁wɔnnka	-14246
▁wɔnnni	-14247
▁wɔntwe	-14248
▁wɔrebe	-14249
▁wɔredi	-14250
▁wɔrenn	-14251
▁wɔrete	-14252
▁yɛnnim	-14253
▁ɔbɛhwɛ	-14254
▁ɔbɛyɛɛ	-14255
▁ɔdanse	-14256
▁ɔkotoo	-14257
▁ɔkɔtoo	-14258
▁ɔrenwu	-14259
▁ɔsaman	-14260
▁ɛntumi	-14261
▁ɛrenka	-14262
▁ɛsofoɔ	-14263
▁adebisa	-14264
▁ahosene	-14265
▁akɔmfoɔ	-14266
▁anakfoɔ	-14267
▁asmawet	-14268
▁atenten	-14269
▁batseba	-14270
▁begyina	-14271
▁bɛduruu	-14272
▁diyifoɔ	-14273
▁dwaneeɛ	-14274
▁gyidini	-14275
▁hebrini	-14276
▁hwannom	-14277
▁kobisaa	-14278
▁korinto	-14279
▁kunafoɔ	-14280
▁mensoma	-14281
▁moasane	-14282
▁mobɛsom	-14283
▁mpampam	-14284
▁mugyina	-14285
▁nkukuwa	-14286
▁nnadewa	-14287
▁nnɛɛmma	-14288
▁nsamono	-14289
▁nsamsoɔ	-14290
▁ntɔmmoɔ	-14291
▁nwisiaa	-14292
▁otukorɔ	-14293
▁pirebuo	-14294
▁sansani	-14295
▁sebadia	-14296
▁sebedeo	-14297
▁teasefo	-14298
▁teɛteɛɛ	-14299
▁wansane	-14300
▁wosowee	-14301
▁wɔadeda	-14302
▁wɔasuro	-14303
▁wɔatete	-14304
▁wɔbɛboa	-14305
▁wɔbɛbrɛ	-14306
▁wɔbɛhwɛ	-14307
▁wɔbɛhyɛ	-14308
▁wɔbɛsoa	-14309
▁wɔbɛwie	-14310
▁wɔdanee	-14311
▁wɔdwene	-14312
▁wɔnenam	-14313
▁wɔnsuro	-14314
▁yekonia	-14315
▁yeroham	-14316
▁yosabad	-14317
▁yɛatumi	-14318
▁ɔnkyerɛ	-14319
▁ɔrekasa	-14320
▁ɔrekorɔ	-14321
▁ɔyafunu	-14322
▁爾上帝耶和華必	-14323
爾上帝耶和華所賜	-14324
▁ahempoma	-14325
▁ahoyeraw	-14326
▁ahuntaeɛ	-14327
▁asennuam	-14328
▁bibitoma	-14329
▁dwaresɛn	-14330
▁gileadni	-14331
▁kristofo	-14332
▁merentie	-14333
▁mobɛtena	-14334
▁munnyina	-14335
▁nkatanim	-14336
▁nkuraase	-14337
▁nnyansra	-14338
▁nsususoɔ	-14339
▁nwiinwii	-14340
▁odeduani	-14341
▁sakasaka	-14342
▁tesaloni	-14343
▁woakyerɛ	-14344
▁wɔanwuwu	-14345
▁wɔdaadaa	-14346
▁wɔkɔsraa	-14347
▁wɔrefiri	-14348
▁wɔrennye	-14349
▁yebetumi	-14350
▁ɔfɛdifoɔ	-14351
▁ɔkunkumm	-14352
▁ɔrensane	-14353
▁ɛberedum	-14354
▁侍衛長尼布撒拉旦	-14355
▁約書亞與以色列眾	-14356
▁維生之耶和華而誓	-14357
▁耶何耶大子比拿雅	-14358
▁萬軍之上帝耶和華	-14359
urukyireeɛ	-14360
▁abantofoɔ	-14361
▁abotitene	-14362
▁adɔkɔdɔkɔ	-14363
▁anwiinwii	-14364
▁asoɔdenfo	-14365
▁gibeonfoɔ	-14366
▁merenhunu	-14367
▁misraimfo	-14368
▁mmofraase	-14369
▁mmorɔdɔma	-14370
▁mommoaboa	-14371
▁monsiesie	-14372
▁nhyehyɛmu	-14373
▁nkɛntɛmma	-14374
▁nsahyɛfoɔ	-14375
▁ntakraboa	-14376
▁ntetekwaa	-14377
▁worenhunu	-14378
▁wɔhyehyɛɛ	-14379
▁wɔnsiesie	-14380
▁wɔtwitwaa	-14381
▁ɔteasefoɔ	-14382
遵耶和華所諭摩西之命	-14383
▁ahantansɛm	-14384
▁ahurisidie	-14385
▁akontonkyi	-14386
▁amumuyɛdeɛ	-14387
▁amumuyɛfoɔ	-14388
▁asasewosow	-14389
▁atirisopam	-14390
▁benyaminni	-14391
▁mmaranimfo	-14392
▁morehwehwɛ	-14393
▁yehoiakyin	-14394
▁akwantemfoɔ	-14395
▁ayeforɔkunu	-14396
▁nkyekyeremu	-14397
▁akronkronfoɔ	-14398
▁atirimɔdenfo	-14399
▁mmɔborɔhunufo	-14400
ol	-14401
▁乳	-14402
▁便	-14403
▁刺	-14404
▁剝	-14405
▁力	-14406
▁助	-14407
▁匠	-14408
▁千	-14409
▁厚	-14410
▁原	-14411
▁叛	-14412
▁周	-14413
▁嗜	-14414
▁囑	-14415
▁囚	-14416
▁塞	-14417
▁害	-14418
▁工	-14419
▁弒	-14420
▁彌	-14421
▁忿	-14422
▁息	-14423
▁拘	-14424
▁撻	-14425
▁改	-14426
▁數	-14427
▁梭	-14428
▁歡	-14429
▁油	-14430
▁犯	-14431
▁申	-14432
▁疾	-14433
▁痛	-14434
▁盜	-14435
▁盤	-14436
▁石	-14437
▁磐	-14438
▁窺	-14439
▁筵	-14440
▁苦	-14441
▁蝮	-14442
▁覲	-14443
▁訓	-14444
▁誘	-14445
▁責	-14446
▁迷	-14447
▁遊	-14448
▁遭	-14449
▁選	-14450
▁量	-14451
▁陟	-14452
▁雕	-14453
▁雷	-14454
▁須	-14455
▁頌	-14456
▁顧	-14457
▁齒	-14458
一掌	-14459
一族	-14460
一詞	-14461
一靈	-14462
三肘	-14463
下同	-14464
不妊	-14465
不易	-14466
不正	-14467
不答	-14468
不雨	-14469
主前	-14470
主名	-14471
主母	-14472
乃屬	-14473
乃潔	-14474
乃聖	-14475
乃返	-14476
之乳	-14477
之井	-14478
之值	-14479
之勢	-14480
之品	-14481
之哈	-14482
之妹	-14483
之座	-14484
之形	-14485
之徒	-14486
之慾	-14487
之杯	-14488
之根	-14489
之法	-14490
之泥	-14491
之甚	-14492
之程	-14493
之羣	-14494
之證	-14495
之雲	-14496
之風	-14497
乏人	-14498
事也	-14499
二女	-14500
二邑	-14501
亙古	-14502
亞利	-14503
亞底	-14504
亞文	-14505
亦無	-14506
人前	-14507
以前	-14508
以女	-14509
以實	-14510
以巴	-14511
以智	-14512
以自	-14513
以至	-14514
以譬	-14515
以陷	-14516
伏拜	-14517
伐之	-14518
位時	-14519
何權	-14520
何物	-14521
使臣	-14522
供之	-14523
俘虜	-14524
偕彼	-14525
備得	-14526
備驢	-14527
傭人	-14528
傾其	-14529
傾怒	-14530
僕從	-14531
充以	-14532
先爾	-14533
入焉	-14534
八千	-14535
八萬	-14536
六肘	-14537
其來	-14538
其工	-14539
其惡	-14540
其時	-14541
其車	-14542
冢子	-14543
出胎	-14544
出迓	-14545
刀劍	-14546
初熟	-14547
利尼	-14548
利末	-14549
利汛	-14550
則可	-14551
則見	-14552
加於	-14553
務盡	-14554
勝者	-14555
十角	-14556
即起	-14557
厥命	-14558
叔伯	-14559
受鞫	-14560
可乎	-14561
可歸	-14562
可知	-14563
可詛	-14564
右耳	-14565
同行	-14566
向三	-14567
向北	-14568
向天	-14569
吾民	-14570
和好	-14571
哈列	-14572
啟其	-14573
喪之	-14574
因而	-14575
土利	-14576
地兮	-14577
地基	-14578
執政	-14579
基納	-14580
基述	-14581
基達	-14582
多子	-14583
多行	-14584
夢中	-14585
大兮	-14586
大國	-14587
大道	-14588
天星	-14589
奇妙	-14590
如己	-14591
如昔	-14592
如水	-14593
如無	-14594
如獅	-14595
如石	-14596
妻子	-14597
子帕	-14598
守望	-14599
宣者	-14600
尊貴	-14601
尼哥	-14602
尼迦	-14603
屋宇	-14604
屬之	-14605
屹立	-14606
州牧	-14607
左手	-14608
己有	-14609
已備	-14610
已定	-14611
帳幕	-14612
幔長	-14613
幕板	-14614
幕門	-14615
幽魂	-14616
弗尼	-14617
往彼	-14618
得一	-14619
得夢	-14620
得赦	-14621
徧行	-14622
必在	-14623
必如	-14624
必應	-14625
忌邪	-14626
忠誠	-14627
恐怖	-14628
惡言	-14629
愁慘	-14630
愁苦	-14631
愈之	-14632
愈甚	-14633
慚怍	-14634
憩息	-14635
憶其	-14636
應以	-14637
應對	-14638
懼之	-14639
我出	-14640
我榮	-14641
我目	-14642
我祖	-14643
我見	-14644
我躬	-14645
我骨	-14646
所慕	-14647
所記	-14648
所錄	-14649
所餘	-14650
扞衛	-14651
承之	-14652
折其	-14653
拉末	-14654
拿鶴	-14655
挽弓	-14656
援之	-14657
撒列	-14658
擾亂	-14659
攘奪	-14660
故邑	-14661
故鄉	-14662
敵爾	-14663
斯地	-14664
斯時	-14665
斷折	-14666
於墓	-14667
於大	-14668
於木	-14669
於林	-14670
於西	-14671
於隱	-14672
於額	-14673
施救	-14674
施醫	-14675
既為	-14676
既盈	-14677
日入	-14678
日必	-14679
易也	-14680
星辰	-14681
是邑	-14682
普亞	-14683
更大	-14684
書念	-14685
曾以	-14686
有女	-14687
有眾	-14688
有若	-14689
服者	-14690
未得	-14691
本族	-14692
材木	-14693
東風	-14694
柱頂	-14695
樂意	-14696
欲害	-14697
此城	-14698
此婦	-14699
殘暴	-14700
比匿	-14701
比路	-14702
毘拉	-14703
永遠	-14704
沃壤	-14705
沈醉	-14706
法撒	-14707
深信	-14708
淹沒	-14709
源泉	-14710
潔矣	-14711
為三	-14712
為光	-14713
為悅	-14714
為意	-14715
為父	-14716
無度	-14717
無間	-14718
然也	-14719
然而	-14720
爇炭	-14721
爾亦	-14722
爾兄	-14723
爾前	-14724
爾在	-14725
爾家	-14726
爾碎	-14727
爾行	-14728
爾道	-14729
猶未	-14730
獨在	-14731
獲安	-14732
王亞	-14733
王所	-14734
珥楠	-14735
瑣珥	-14736
瑪瑙	-14737
瑪那	-14738
環繞	-14739
環視	-14740
瓦音	-14741
產者	-14742
發其	-14743
發忿	-14744
百倍	-14745
皆有	-14746
監督	-14747
相間	-14748
眾生	-14749
石為	-14750
破裂	-14751
神者	-14752
禍患	-14753
禽獸	-14754
立拿	-14755
節之	-14756
節曰	-14757
篩亞	-14758
米大	-14759
米所	-14760
糧食	-14761
納我	-14762
細故	-14763
給爾	-14764
縛之	-14765
美矣	-14766
羞慚	-14767
翼下	-14768
而仆	-14769
而復	-14770
而戰	-14771
而止	-14772
而穫	-14773
而逝	-14774
而顯	-14775
聖潔	-14776
聽而	-14777
聽訟	-14778
肩帶	-14779
膳長	-14780
自慎	-14781
自西	-14782
至四	-14783
致書	-14784
與婦	-14785
與座	-14786
與水	-14787
與羊	-14788
興一	-14789
蒙面	-14790
藏之	-14791
行也	-14792
衛士	-14793
衣麻	-14794
西弗	-14795
見一	-14796
見奪	-14797
見折	-14798
見滅	-14799
親屬	-14800
討之	-14801
詬詈	-14802
請爾	-14803
諸誡	-14804
豁免	-14805
貧人	-14806
路者	-14807
踐踏	-14808
迦撒	-14809
逆之	-14810
逆我	-14811
通商	-14812
進而	-14813
遠之	-14814
遺業	-14815
邑之	-14816
鄉間	-14817
銅壇	-14818
雅哈	-14819
雅謝	-14820
難中	-14821
非拉	-14822
非義	-14823
顫動	-14824
顯其	-14825
颶風	-14826
食於	-14827
飽食	-14828
飾之	-14829
鱷魚	-14830
aal	-14831
buw	-14832
der	-14833
iam	-14834
mem	-14835
nam	-14836
obɔ	-14837
omu	-14838
pim	-14839
pon	-14840
pua	-14841
sad	-14842
sek	-14843
ses	-14844
ɛfɛ	-14845
▁三人	-14846
▁上攻	-14847
▁不使	-14848
▁不依	-14849
▁不盡	-14850
▁不行	-14851
▁且凡	-14852
▁且將	-14853
▁中懷	-14854
▁乃召	-14855
▁乃返	-14856
▁亞們	-14857
▁亞利	-14858
▁亞大	-14859
▁亦獻	-14860
▁亦由	-14861
▁人心	-14862
▁人皆	-14863
▁今亦	-14864
▁今其	-14865
▁今彼	-14866
▁他瑪	-14867
▁付之	-14868
▁以奉	-14869
▁以守	-14870
▁以救	-14871
▁以水	-14872
▁以禦	-14873
▁以笏	-14874
▁以衣	-14875
▁何不	-14876
▁使居	-14877
▁俱以	-14878
▁俾民	-14879
▁傾覆	-14880
▁僕曰	-14881
▁充以	-14882
▁內有	-14883
▁其下	-14884
▁其告	-14885
▁其往	-14886
▁其智	-14887
▁其界	-14888
▁其畧	-14889
▁其終	-14890
▁其道	-14891
▁其首	-14892
▁凡聞	-14893
▁凡諸	-14894
▁刃擊	-14895
▁則由	-14896
▁加諸	-14897
▁即以	-14898
▁即為	-14899
▁又為	-14900
▁可以	-14901
▁各歸	-14902
▁告以	-14903
▁咸在	-14904
▁哈薩	-14905
▁四境	-14906
▁因無	-14907
▁土壤	-14908
▁基遍	-14909
▁外族	-14910
▁如前	-14911
▁富者	-14912
▁將以	-14913
▁將得	-14914
▁專心	-14915
▁尚在	-14916
▁屈膝	-14917
▁山羊	-14918
▁巴錄	-14919
▁希臘	-14920
▁干罪	-14921
▁庶幾	-14922
▁彼行	-14923
▁律法	-14924
▁必先	-14925
▁必報	-14926
▁必攜	-14927
▁必絕	-14928
▁必行	-14929
▁恆久	-14930
▁惟欲	-14931
▁惟求	-14932
▁惟王	-14933
▁我向	-14934
▁我無	-14935
▁我皆	-14936
▁我緣	-14937
▁我行	-14938
▁我賴	-14939
▁我身	-14940
▁我遭	-14941
▁所諭	-14942
▁所遺	-14943
▁拉吉	-14944
▁故其	-14945
▁故勿	-14946
▁故彼	-14947
▁斯事	-14948
▁日出	-14949
▁是夕	-14950
▁暨厥	-14951
▁書亞	-14952
▁有落	-14953
▁有言	-14954
▁服事	-14955
▁欲以	-14956
▁正人	-14957
▁此亦	-14958
▁歷年	-14959
▁毋庸	-14960
▁每晨	-14961
▁民皆	-14962
▁決不	-14963
▁海水	-14964
▁深願	-14965
▁無子	-14966
▁燈臺	-14967
▁爾即	-14968
▁爾口	-14969
▁爾妻	-14970
▁爾由	-14971
▁爾聞	-14972
▁牡牛	-14973
▁牡羊	-14974
▁猶未	-14975
▁生物	-14976
▁生長	-14977
▁由於	-14978
▁當知	-14979
▁皆以	-14980
▁皆當	-14981
▁眾女	-14982
▁知識	-14983
▁碎其	-14984
▁示以	-14985
▁祝謝	-14986
▁秉公	-14987
▁稱頌	-14988
▁立為	-14989
▁第二	-14990
▁等於	-14991
▁精金	-14992
▁終則	-14993
▁終夜	-14994
▁結實	-14995
▁而以	-14996
▁而受	-14997
▁而從	-14998
▁而為	-14999
▁而知	-15000
▁能力	-15001
▁腰束	-15002
▁臣僕	-15003
▁自取	-15004
▁自是	-15005
▁自為	-15006
▁與凡	-15007
▁與所	-15008
▁若輩	-15009
▁荊棘	-15010
▁蓋經	-15011
▁蓋非	-15012
▁行時	-15013
▁行淫	-15014
▁被虜	-15015
▁西弗	-15016
▁言畢	-15017
▁託庇	-15018
▁請王	-15019
▁請聽	-15020
▁諸邑	-15021
▁謀害	-15022
▁譬彼	-15023
▁豈得	-15024
▁賜我	-15025
▁超乎	-15026
▁超越	-15027
▁載於	-15028
▁迦米	-15029
▁迦薩	-15030
▁遂出	-15031
▁遂執	-15032
▁遂語	-15033
▁遂返	-15034
▁遇一	-15035
▁遇險	-15036
▁適有	-15037
▁鄰里	-15038
▁銀座	-15039
▁隨時	-15040
▁離乎	-15041
▁預言	-15042
▁願彼	-15043
▁飲食	-15044
▁魔鬼	-15045
▁黎明	-15046
一歲之	-15047
上帝道	-15048
中之一	-15049
之不得	-15050
之人乎	-15051
之姊妹	-15052
之子乎	-15053
之寶物	-15054
之將指	-15055
之巨擘	-15056
之美地	-15057
予我者	-15058
二十年	-15059
五百人	-15060
五百肘	-15061
亞哈斯	-15062
亞比該	-15063
亞該亞	-15064
人之血	-15065
人拿伯	-15066
以其血	-15067
任聖職	-15068
何利巴	-15069
使之為	-15070
使者曰	-15071
依爾言	-15072
偏於右	-15073
偏於左	-15074
偶像者	-15075
允其所	-15076
先知曰	-15077
其上帝	-15078
其中者	-15079
其人也	-15080
其偶像	-15081
其子孫	-15082
其所產	-15083
其昆弟	-15084
其父母	-15085
其貨財	-15086
出其境	-15087
利米雅	-15088
十五年	-15089
及他祭	-15090
及從者	-15091
哈拿尼	-15092
回厥罰	-15093
基列地	-15094
大利謝	-15095
奉事之	-15096
如是行	-15097
子示巴	-15098
子約瑟	-15099
導我入	-15100
崇事之	-15101
巴珊之	-15102
巴西萊	-15103
帖撒羅	-15104
忠信之	-15105
悖逆之	-15106
我主我	-15107
我儕為	-15108
我律例	-15109
我所悅	-15110
我所錫	-15111
我聖所	-15112
我震怒	-15113
戮於刃	-15114
所受之	-15115
所愛之	-15116
所未識	-15117
所製之	-15118
所許者	-15119
拉伯人	-15120
拿細耳	-15121
摘葡萄	-15122
摩押王	-15123
攜之去	-15124
攜之至	-15125
於主前	-15126
於其衷	-15127
於地兮	-15128
於爾兮	-15129
於爾室	-15130
於爾家	-15131
於迦特	-15132
於雅各	-15133
橄欖樹	-15134
欣嫩子	-15135
歲而終	-15136
毀滅之	-15137
為之備	-15138
為我而	-15139
無所得	-15140
燔祭壇	-15141
父上帝	-15142
爾之地	-15143
爾之日	-15144
爾貨品	-15145
牲之血	-15146
猶大族	-15147
獻之祭	-15148
班之長	-15149
瑪哈念	-15150
瓦實提	-15151
由耶穌	-15152
異邦之	-15153
矜恤之	-15154
神而言	-15155
福音之	-15156
稱我為	-15157
立爾為	-15158
米利巴	-15159
米書蘭	-15160
約哈斯	-15161
約雅斤	-15162
索我命	-15163
者之前	-15164
者之目	-15165
而從之	-15166
而歸之	-15167
而誓者	-15168
聞之而	-15169
腓力士	-15170
至我所	-15171
至於死	-15172
與我言	-15173
見之乎	-15174
見之而	-15175
見殺者	-15176
見耶穌	-15177
視之為	-15178
言而行	-15179
託我名	-15180
記有云	-15181
語爾者	-15182
諸王之	-15183
責爾以	-15184
賜爾祖	-15185
起而往	-15186
踐其言	-15187
遣人召	-15188
雅各之	-15189
食其肉	-15190
魯河濱	-15191
adea	-15192
amni	-15193
anok	-15194
brɛe	-15195
buro	-15196
dfoɔ	-15197
duae	-15198
emos	-15199
ente	-15200
fomm	-15201
fude	-15202
humu	-15203
huni	-15204
iafa	-15205
inya	-15206
kaeɛ	-15207
kila	-15208
krɔn	-15209
kuru	-15210
kyie	-15211
mmɛn	-15212
muel	-15213
nɔne	-15214
owaa	-15215
paeɛ	-15216
piaa	-15217
pini	-15218
pɛsɛ	-15219
remf	-15220
siam	-15221
taol	-15222
tɛtɛ	-15223
umma	-15224
▁big	-15225
▁buo	-15226
▁dim	-15227
▁edu	-15228
▁ewu	-15229
▁gir	-15230
▁gol	-15231
▁ira	-15232
▁kon	-15233
▁mig	-15234
▁odu	-15235
▁oko	-15236
▁uri	-15237
▁yaf	-15238
▁yah	-15239
▁yib	-15240
▁ɛbu	-15241
▁上帝所	-15242
▁亞實突	-15243
▁亞比蘭	-15244
▁亦無有	-15245
▁亦若是	-15246
▁依其所	-15247
▁其昆弟	-15248
▁其門徒	-15249
▁凡其所	-15250
▁則爾之	-15251
▁原文為	-15252
▁及其子	-15253
▁及長老	-15254
▁各歸其	-15255
▁哥尼流	-15256
▁在上帝	-15257
▁埃及王	-15258
▁基哈西	-15259
▁得勝者	-15260
▁憐恤我	-15261
▁我不復	-15262
▁我不挽	-15263
▁我不識	-15264
▁我亦必	-15265
▁我使之	-15266
▁我必絕	-15267
▁我必自	-15268
▁我於爾	-15269
▁我民歟	-15270
▁我知其	-15271
▁我言此	-15272
▁或雛鴿	-15273
▁所得之	-15274
▁拯我於	-15275
▁摩西告	-15276
▁故上帝	-15277
▁散之於	-15278
▁法老曰	-15279
▁為爾之	-15280
▁爾不知	-15281
▁爾曹亦	-15282
▁爾曹當	-15283
▁爾知我	-15284
▁異邦人	-15285
▁約押曰	-15286
▁而上帝	-15287
▁而不能	-15288
▁耶穌之	-15289
▁耶穌在	-15290
▁耶穌者	-15291
▁耶羅罕	-15292
▁自一月	-15293
▁至七日	-15294
▁誠所願	-15295
▁請告我	-15296
上帝之旨	-15297
上帝之會	-15298
上帝之言	-15299
之亞羅珥	-15300
之以色列	-15301
亞多尼雅	-15302
亞比拿達	-15303
以利加拿	-15304
以利沙曰	-15305
任祭司職	-15306
何利巴瑪	-15307
十二支派	-15308
子亞哈謝	-15309
子以利押	-15310
子瑪拿西	-15311
子非尼哈	-15312
崇拜巴力	-15313
弟亞比篩	-15314
惡人之手	-15315
我儕之父	-15316
所建之室	-15317
所行之事	-15318
所選之處	-15319
摩押平原	-15320
於十字架	-15321
有數卷增	-15322
棄耶和華	-15323
死者復起	-15324
為猶太人	-15325
為贖罪祭	-15326
烈火之爐	-15327
猶大人之	-15328
猶大支派	-15329
獨生之子	-15330
珥子巴蘭	-15331
生命而誓	-15332
由於上帝	-15333
異族之神	-15334
綠樹之下	-15335
而得之地	-15336
耶布斯人	-15337
至別是巴	-15338
英武之士	-15339
謹守遵行	-15340
長子之業	-15341
陳設之餅	-15342
頌美之兮	-15343
aadoo	-15344
begye	-15345
enkom	-15346
funum	-15347
hwire	-15348
kyɛre	-15349
pamfo	-15350
pereɛ	-15351
porɔw	-15352
rebuw	-15353
risan	-15354
salel	-15355
sugya	-15356
trama	-15357
umiiɛ	-15358
wuwui	-15359
wuwuo	-15360
▁afam	-15361
▁afek	-15362
▁akub	-15363
▁atra	-15364
▁bɔre	-15365
▁bɛdɔ	-15366
▁dwoe	-15367
▁dɛre	-15368
▁edin	-15369
▁elif	-15370
▁enan	-15371
▁esia	-15372
▁etan	-15373
▁gaal	-15374
▁gibe	-15375
▁gugu	-15376
▁gyam	-15377
▁hata	-15378
▁herɛ	-15379
▁huam	-15380
▁kiti	-15381
▁kɔbɔ	-15382
▁maon	-15383
▁matu	-15384
▁migu	-15385
▁mmon	-15386
▁mufi	-15387
▁muse	-15388
▁musi	-15389
▁mɛsɔ	-15390
▁mɛtɔ	-15391
▁nnhu	-15392
▁nnwu	-15393
▁nnɛn	-15394
▁nwie	-15395
▁omfi	-15396
▁onan	-15397
▁pore	-15398
▁resa	-15399
▁sini	-15400
▁sisa	-15401
▁sofo	-15402
▁soko	-15403
▁sosɔ	-15404
▁sɔnn	-15405
▁sɛpɛ	-15406
▁tola	-15407
▁tuiɛ	-15408
▁want	-15409
▁watɔ	-15410
▁wesa	-15411
▁woba	-15412
▁woko	-15413
▁woro	-15414
▁wuda	-15415
▁wuse	-15416
▁yaya	-15417
▁yɛma	-15418
▁ɔdɔɔ	-15419
▁ɔhen	-15420
▁ɔhoɔ	-15421
▁ɔsrɛ	-15422
▁ɛdɛn	-15423
▁ɛnan	-15424
▁ɛsow	-15425
▁不聽我言	-15426
▁乃耶和華	-15427
▁乃蒙赦宥	-15428
▁亞拿突人	-15429
▁亞達薛西	-15430
▁以利以謝	-15431
▁俾眾目睹	-15432
▁其外無他	-15433
▁其畧如左	-15434
▁古文抄本	-15435
▁哈沙比雅	-15436
▁尚其興起	-15437
▁巴珊王噩	-15438
▁彼謂我曰	-15439
▁循耶和華	-15440
▁必致之死	-15441
▁惟我語爾	-15442
▁我何人斯	-15443
▁我外無他	-15444
▁我將何以	-15445
▁我將使之	-15446
▁我必使之	-15447
▁我必偕爾	-15448
▁我必為爾	-15449
▁按手其首	-15450
▁是以我儕	-15451
▁爰及苗裔	-15452
▁祭司先知	-15453
▁而崇拜之	-15454
▁耶和華則	-15455
▁耶和華復	-15456
▁耶穌知其	-15457
▁耶穌答曰	-15458
▁至三至四	-15459
▁至今猶存	-15460
▁至於盡滅	-15461
▁越至七日	-15462
▁遂語之曰	-15463
▁遲於發怒	-15464
▁願王萬歲	-15465
亞蘭王哈薛	-15466
付之於爾手	-15467
以色列族長	-15468
以色列諸王	-15469
利亞子巴錄	-15470
原影像本作	-15471
在耶和華室	-15472
基利子示巴	-15473
帖撒羅尼迦	-15474
流無辜之血	-15475
為我名建室	-15476
由死中復起	-15477
葬於大衛城	-15478
諮諏耶和華	-15479
謂其門徒曰	-15480
dwemma	-15481
faksad	-15482
firani	-15483
humuhu	-15484
kanfoɔ	-15485
kyɛnse	-15486
peepee	-15487
pempam	-15488
sianee	-15489
sotire	-15490
tuafoɔ	-15491
yammoɔ	-15492
▁abɛko	-15493
▁adaia	-15494
▁adwan	-15495
▁afeda	-15496
▁afura	-15497
▁afuru	-15498
▁aguan	-15499
▁ahane	-15500
▁akono	-15501
▁akuru	-15502
▁anini	-15503
▁anoyi	-15504
▁anyin	-15505
▁asaia	-15506
▁atete	-15507
▁atipa	-15508
▁atrɛw	-15509
▁betie	-15510
▁bikri	-15511
▁bosra	-15512
▁bɛguu	-15513
▁bɛkum	-15514
▁bɛnom	-15515
▁bɛsan	-15516
▁bɛwuo	-15517
▁dasuo	-15518
▁dison	-15519
▁dodom	-15520
▁duban	-15521
▁dupɔn	-15522
▁dwono	-15523
▁fɛdie	-15524
▁geber	-15525
▁gerar	-15526
▁hanok	-15527
▁karmi	-15528
▁kebar	-15529
▁kemos	-15530
▁kenan	-15531
▁kuduo	-15532
▁kurae	-15533
▁kyɛne	-15534
▁kɔsom	-15535
▁makum	-15536
▁manhu	-15537
▁manso	-15538
▁medaa	-15539
▁memfi	-15540
▁meteɛ	-15541
▁midii	-15542
▁minya	-15543
▁mmoaa	-15544
▁molek	-15545
▁monno	-15546
▁mɛdua	-15547
▁nkorɔ	-15548
▁nkɔda	-15549
▁nkɔyɛ	-15550
▁nnhyɛ	-15551
▁nnyae	-15552
▁nyowa	-15553
▁obisa	-15554
▁onnya	-15555
▁osuro	-15556
▁otiri	-15557
▁owifo	-15558
▁owufo	-15559
▁pisga	-15560
▁pɛsɛm	-15561
▁pɛɛwa	-15562
▁rebɛn	-15563
▁renyi	-15564
▁resɛe	-15565
▁sabad	-15566
▁sakur	-15567
▁saron	-15568
▁sefar	-15569
▁simea	-15570
▁suroe	-15571
▁taana	-15572
▁tapua	-15573
▁tenae	-15574
▁wafom	-15575
▁woaba	-15576
▁wofrɛ	-15577
▁woguu	-15578
▁wommu	-15579
▁wotaa	-15580
▁wotia	-15581
▁wotoo	-15582
▁wɔsɔɔ	-15583
▁yakin	-15584
▁yared	-15585
▁yenya	-15586
▁yeter	-15587
▁yobab	-15588
▁yɛakɔ	-15589
▁yɛkae	-15590
▁yɛsom	-15591
▁ɔbutu	-15592
▁ɔbɛte	-15593
▁ɔmmra	-15594
▁ɔsrɛɛ	-15595
▁ɔtiee	-15596
▁ɛbɛsi	-15597
▁亞倫及其子	-15598
▁以色列王曰	-15599
▁呼籲耶和華	-15600
▁廣一肘有半	-15601
▁歸於耶和華	-15602
▁耶和華又曰	-15603
▁耶和華有言	-15604
▁自一月以上	-15605
亞爸拉罕之裔	-15606
以色列支派中	-15607
伊法十分之三	-15608
尼布甲尼撒王	-15609
從事於會幕者	-15610
猶大王約雅敬	-15611
kumaboɔ	-15612
nhyɛnee	-15613
suatɛtɛ	-15614
wanefoɔ	-15615
▁aboomu	-15616
▁adesrɛ	-15617
▁adidii	-15618
▁ahwete	-15619
▁ansɔre	-15620
▁betwam	-15621
▁bɛdidi	-15622
▁bɛhwɛɛ	-15623
▁bɛpopo	-15624
▁bɛtene	-15625
▁estaol	-15626
▁galile	-15627
▁gilboa	-15628
▁hwetee	-15629
▁kaiafa	-15630
▁kyenee	-15631
▁kyidɔm	-15632
▁kɔhwɛɛ	-15633
▁kɔhyia	-15634
▁kɔkumm	-15635
▁kɔsrɛɛ	-15636
▁makeda	-15637
▁masane	-15638
▁mehwee	-15639
▁mesɛee	-15640
▁meteaa	-15641
▁mfiase	-15642
▁mmmere	-15643
▁mobisa	-15644
▁monnkɔ	-15645
▁munsua	-15646
▁nantew	-15647
▁nkosua	-15648
▁nnuruu	-15649
▁nsuano	-15650
▁ntanta	-15651
▁ntokon	-15652
▁nuabea	-15653
▁nyowaa	-15654
▁obetie	-15655
▁pedaia	-15656
▁pɛadea	-15657
▁rebɛbɔ	-15658
▁rehuru	-15659
▁rekɔko	-15660
▁rennye	-15661
▁siamoo	-15662
▁sibeon	-15663
▁sɔreeɛ	-15664
▁tenaeɛ	-15665
▁watene	-15666
▁woakum	-15667
▁woatwa	-15668
▁wodidi	-15669
▁wohyia	-15670
▁wosane	-15671
▁wɔadua	-15672
▁wɔahwɛ	-15673
▁wɔanka	-15674
▁wɔasom	-15675
▁wɔawie	-15676
▁wɔboro	-15677
▁wɔbɛbu	-15678
▁wɔkoto	-15679
▁wɔresu	-15680
▁wɔretu	-15681
▁wɔreyi	-15682
▁wɔsraa	-15683
▁wɔteaa	-15684
▁yetumi	-15685
▁yishar	-15686
▁yɛagye	-15687
▁yɛbɛfa	-15688
▁yɛnsom	-15689
▁ɔbɛkaa	-15690
▁ɔbɛsan	-15691
▁ɔdwene	-15692
▁ɔkɔfaa	-15693
▁ɔremmu	-15694
▁ɔrenyɛ	-15695
▁我不挽回厥罰	-15696
▁搖於耶和華前	-15697
▁斯人其有福兮	-15698
▁耶和華上帝歟	-15699
亞伯拉罕之上帝	-15700
uonyamfo	-15701
▁aborɔme	-15702
▁adehyeɛ	-15703
▁adesaeɛ	-15704
▁adwempa	-15705
▁agyedeɛ	-15706
▁ahwehwe	-15707
▁akaadoo	-15708
▁asomsɛm	-15709
▁behyira	-15710
▁besalel	-15711
▁bɛtoaeɛ	-15712
▁dapɔnna	-15713
▁kadmiel	-15714
▁kilikia	-15715
▁kohyiaa	-15716
▁kokuroo	-15717
▁mefirii	-15718
▁mommisa	-15719
▁monnnye	-15720
▁monsene	-15721
▁monsuro	-15722
▁mpataku	-15723
▁nkontaa	-15724
▁nnareka	-15725
▁nnkyerɛ	-15726
▁nsugyeɛ	-15727
▁nyankon	-15728
▁ogyatan	-15729
▁onyanee	-15730
▁renhunu	-15731
▁serebia	-15732
▁sodifoɔ	-15733
▁tirimbɔ	-15734
▁tirinwi	-15735
▁torofoɔ	-15736
▁wammane	-15737
▁woantie	-15738
▁woatumi	-15739
▁wonsuro	-15740
▁worenkɔ	-15741
▁wɔakata	-15742
▁wɔakora	-15743
▁wɔantwa	-15744
▁wɔayera	-15745
▁wɔayiyi	-15746
▁wɔbisaa	-15747
▁wɔkyiri	-15748
▁wɔmmisa	-15749
▁wɔremmu	-15750
▁wɔrenka	-15751
▁wɔresom	-15752
▁wɔtasee	-15753
▁wɔtotɔɔ	-15754
▁wɔyiyii	-15755
▁yegyina	-15756
▁yɛnhunu	-15757
▁yɛnsane	-15758
▁yɛntena	-15759
▁yɛtenaa	-15760
▁ɔboafoɔ	-15761
▁ɔbɛsɔre	-15762
▁ɔhwɛfoɔ	-15763
▁ɔyarefo	-15764
▁ɛnkyerɛ	-15765
▁ɛrebɛba	-15766
▁乃爾上帝耶和華	-15767
▁亞希甘子基大利	-15768
▁俾知我乃耶和華	-15769
▁及耶路撒冷居民	-15770
▁此在恆獻之燔祭	-15771
爾上帝耶和華之言	-15772
耶何耶大子比拿雅	-15773
enkominya	-15774
hiahiafoɔ	-15775
▁afotufoɔ	-15776
▁agyinamu	-15777
▁ahometeɛ	-15778
▁amannɔne	-15779
▁arfaksad	-15780
▁belsasar	-15781
▁gamaliel	-15782
▁kitikiti	-15783
▁megyinaa	-15784
▁mmubuafo	-15785
▁mmɛgyina	-15786
▁muhumuhu	-15787
▁mɛhwehwɛ	-15788
▁nkyeremu	-15789
▁sɔresɔre	-15790
▁wobɛfiri	-15791
▁wɔadwiri	-15792
▁wɔakyerɛ	-15793
▁wɔkamfoo	-15794
▁wɔkunkum	-15795
▁wɔnhunuu	-15796
▁wɔrekɔfa	-15797
▁wɔremfrɛ	-15798
▁ɔhwehwɛɛ	-15799
▁ɔteasefo	-15800
▁以藍紫絳三色之縷	-15801
▁尼探雅子以實瑪利	-15802
▁彼則知我乃耶和華	-15803
上帝耶和華之名建室	-15804
▁aborɔnoma	-15805
▁adanmudeɛ	-15806
▁aduanekan	-15807
▁afomfafoɔ	-15808
▁agyimifoɔ	-15809
▁ahunahuna	-15810
▁akyiridie	-15811
▁atɛntɛbɛn	-15812
▁awogyefoɔ	-15813
▁manasefoɔ	-15814
▁mehwehwɛɛ	-15815
▁merennane	-15816
▁monhyehyɛ	-15817
▁nhyɛsofoɔ	-15818
▁nkonimdie	-15819
▁nkyerɛase	-15820
▁nsɔanodeɛ	-15821
▁nyamesuro	-15822
▁odwanefoɔ	-15823
▁oholibama	-15824
▁owiapueeɛ	-15825
▁peletifoɔ	-15826
▁samariafo	-15827
▁woasiesie	-15828
▁wɔrentena	-15829
▁ɔbɛgyinaa	-15830
▁我乃爾之上帝耶和華	-15831
▁abosonhunu	-15832
▁aboɔdenneɛ	-15833
▁adekorabea	-15834
▁ahantanfoɔ	-15835
▁amumuyɛsɛm	-15836
▁animguaseɛ	-15837
▁anisuatɛtɛ	-15838
▁aniɛdenfoɔ	-15839
▁ankɔbeafoɔ	-15840
▁aperepereɛ	-15841
▁kɔntɔnkrɔn	-15842
▁mmaratodeɛ	-15843
▁monwiinwii	-15844
▁nnɛnkyɛnse	-15845
▁ntaasotire	-15846
▁nuammaanom	-15847
▁tesalonika	-15848
▁ɔhoɔdenfoɔ	-15849
▁ɔsɔfopanin	-15850
▁ahobrɛasefo	-15851
▁awaresɛefoɔ	-15852
▁nkunkumaboɔ	-15853
▁ntokontrama	-15854
▁ɔkyerɛkyerɛ	-15855
▁nkurukyireeɛ	-15856
▁wogyinagyina	-15857
▁wɔbɛkyekyere	-15858
▁animuonyamfoɔ	-15859
尼八子耶羅波安陷以色列人之罪	-15860
▁otirimuɔdenfoɔ	-15861
▁pɛsɛmenkominya	-15862
ɛɛ	-15863
▁仰	-15864
▁伐	-15865
▁余	-15866
▁值	-15867
▁公	-15868
▁匱	-15869
▁叩	-15870
▁吹	-15871
▁奔	-15872
▁學	-15873
▁宗	-15874
▁宴	-15875
▁尤	-15876
▁帕	-15877
▁志	-15878
▁扑	-15879
▁承	-15880
▁掘	-15881
▁摧	-15882
▁斥	-15883
▁旋	-15884
▁杖	-15885
▁概	-15886
▁欺	-15887
▁沃	-15888
▁溪	-15889
▁濟	-15890
▁烹	-15891
▁猝	-15892
▁玷	-15893
▁畀	-15894
▁督	-15895
▁統	-15896
▁絳	-15897
▁肥	-15898
▁船	-15899
▁苟	-15900
▁茲	-15901
▁荒	-15902
▁角	-15903
▁誓	-15904
▁誦	-15905
▁賦	-15906
▁輕	-15907
▁辨	-15908
▁連	-15909
▁遘	-15910
▁避	-15911
▁邊	-15912
▁鐵	-15913
▁鑿	-15914
▁雜	-15915
▁鞫	-15916
▁體	-15917
▁鳥	-15918
一例	-15919
一僕	-15920
一段	-15921
一邑	-15922
上至	-15923
下山	-15924
不滅	-15925
中無	-15926
主治	-15927
主為	-15928
之不	-15929
之几	-15930
之北	-15931
之場	-15932
之敵	-15933
之極	-15934
之殿	-15935
之污	-15936
[...]
